{"vocab": ["gew</w>", "tice</w>", "actoss</w>", "24.8%</w>", "psitively</w>", "12.5%</w>", "$40,900,000,</w>", "rements</w>", "nps</w>", "p0tential</w>", "8%%</w>", "interpr", "ver</w>", "2,022</w>", "omnths</w>", "acquisiition</w>", "develo", "direct", "folio</w>", "wehn</w>", "el</w>", "pr0vider</w>", "tive1y</w>", "systm", "-", "atform</w>", "gro", "re9ulatory</w>", "stray", "strob", "$30.", "opwrational</w>", "0rbis</w>", "id", "appproved</w>", "enterprise</w>", "eatimates</w>", "overr</w>", "marke", "montths</w>", "emlpoyee</w>", "solutio", "7.6%</w>", "approve", "i1ity</w>", "r0nment.</w>", "0.6%</w>", "reco", "headwind", "socres.</w>", "hirin9</w>", "baor", "technol0gies</w>", "headwind</w>", "yyear</w>", "enteer", "89.1%,</w>", "vary</w>", "viewing</w>", "expecetd</w>", "$293,000,000,</w>", "str", "outperf0r", "wth</w>", "8%,</w>", "epansion,</w>", "integrat", "79.1%,</w>", "gropu</w>", "account", "chall", "esr</w>", "iously</w>", "indusr", "dedicaed</w>", "maagement</w>", "egy</w>", "liers.</w>", "26", "26.5%</w>", ".s</w>", "$8%,</w>", "15.5%</w>", "europe,</w>", "pub1ished</w>", "consumr</w>", "neg", "25%</w>", "contr", "ressed.</w>", "ro", "ipates</w>", "trasn", "outperorm</w>", "23.8%</w>", "defin", "iliti", "managgement</w>", "menta</w>", "continues</w>", "yr", "ti0n.</w>", "i1</w>", "32.2%</w>", "31.7%,</w>", "matr", "enery", "was</w>", "potentia1</w>", "aut0", "cauti0", "apprxoimately</w>", "ats</w>", "cons", "5o", "enga", "reulatory</w>", "ationa1</w>", "regionl</w>", "f0lio</w>", "1.5%</w>", "es,</w>", "a1i", "plined</w>", "ared</w>", "industryy</w>", "dership</w>", "slara</w>", "meworks</w>", "ependiture</w>", "ironveill</w>", "ease</w>", "peoduct</w>", "attrituon</w>", "chabges</w>", "medical</w>", "do", "lic", "liance</w>", "acorss</w>", "explicitly</w>", "$10.", "ttarget</w>", "rve", "approx", "aike.</w>", "aggressivve</w>", "lu</w>", "marks</w>", "$43,400,000,</w>", "295%,</w>", "mo", "80", "0ut</w>", "optimz", "i1ity.</w>", "yeat</w>", "automation</w>", "geopo1itical</w>", "10.0%</w>", "$16.0%</w>", "pr0jections</w>", "all", "addressable</w>", "ocmparative</w>", "vice</w>", "okafor</w>", "$146", "<ans>", "discplined</w>", "intiatives</w>", "sl", "frm</w>", "19.0%</w>", "custon", "systeem", "funct", "compra", "intro", "biome", "whle</w>", "david</w>", "yer", "intern", "hiri", "electron", "orb", "financi", "wxpenditure</w>", "witj", "sc0", "iness</w>", "c0nditions</w>", "ann</w>", "devellopments</w>", "reporteed</w>", "oer", "witjin</w>", "18.$3%</w>", "multip", "gure</w>", "finanical</w>", "compliance</w>", "crepanc", "84", "pursuued</w>", "devel0pments.</w>", "acpital</w>", "succ", "ft</w>", "84.7%,</w>", "revwn", "24.5%</w>", "report</w>", "custmoer</w>", "ali9n", "techno1ogies</w>", "ov", "devvelopments</w>", "optimistiic</w>", "g", "drive", "34.7%,</w>", "optimus", "scors</w>", "mer</w>", "vasquez", "12.", "84.3%,</w>", "5.1%</w>", "serice</w>", "vonsumer</w>", "managemwnt</w>", "acrosa</w>", "rpo", "compi1", "throuh", "saal", "46", "system", "margib", "17", "very</w>", "soucing</w>", "center", "increasef</w>", "industrila</w>", "on.</w>", "cloud</w>", "increaswd</w>", "omics</w>", "committee</w>", "periiod</w>", "$22,700000,</w>", "78", "servu", "improvement</w>", "ectron", "tarr", "softw", "ntory</w>", "reliabi1ity,</w>", "sour", "servixe</w>", "maajor</w>", "lei", "ww</w>", "pr0hibited</w>", "reive", "3.", "wir", ",000000</w>", "challeng", ",99", "ument</w>", "s0uth</w>", "guidab", "leadersip</w>", "alij", "tran</w>", "obth</w>", ",%</w>", "fun", "any</w>", "macroeconomi", "0%</w>", "sourcin9</w>", "mare", ",400,000,</w>", "32.2%,</w>", "dataa</w>", "fluctuati0ns</w>", "rec", "yearr</w>", "uct", "teed.</w>", "othrwise</w>", "ensre</w>", "lastt</w>", "acquisiti", "techn", "ting.</w>", "277%,</w>", "superiorr</w>", "ves</w>", "mization.</w>", "ica1ly</w>", "66%</w>", "ati0n</w>", "rf", "5.9%</w>", "49%</w>", "missi", "cntered</w>", "$49", "ahea,d</w>", "adustments</w>", "$2,021,</w>", "1ated</w>", "succcess</w>", "al1oc", "devicces</w>", "resemlance</w>", "htis</w>", "financcial</w>", "$492,000,000,</w>", "customeer</w>", "mul", "surpass", "positiion.</w>", "eur0pe</w>", "entered</w>", "presen", "ope", ",6", "l0", "0ver", "vo", "$15.", "ky</w>", "optim", "infustry</w>", "less</w>", "<pad>", "are</w>", "managemrnt</w>", "7000k,</w>", "rehi", "rev", "daat</w>", "thrp", "iod</w>", "0mer</w>", "management</w>", "maar", "maintaiinng</w>", "os</w>", "stron9</w>", "economics</w>", "b0", "form</w>", "$325,000,000,</w>", "p0sition.</w>", "versi0n.</w>", "heaadwinds</w>", "macroecon", "consolidated</w>", "decl", "enterprisse</w>", "atted</w>", "forei", "enterpries</w>", "iders</w>", "urc", "$4,400,000,</w>", "solutions,</w>", "managemnt</w>", "cosy</w>", "rin9</w>", "ifnrastructure</w>", "iess</w>", "ved.</w>", "c0ntact</w>", "1i", "gments</w>", "energ", "custtomer</w>", "$31", "mnufacturing</w>", "aggresive</w>", "mta", "$449", "20.5%,</w>", "improved</w>", "tsrong</w>", "believed</w>", "expenid", "prom0", "c0mpliance</w>", "om</w>", "leectron", "strau", "rational</w>", "develop", "8io", "ven</w>", "regulatoyr</w>", "0ptimistic</w>", "s.</w>", "sted</w>", "kimur", "ecoomics.</w>", "revene</w>", "infrastructure</w>", "inrastructure</w>", "systems.</w>", "opertional</w>", "group", "$48,300,000,</w>", "own</w>", "facturing</w>", "guidan", "35", "5olara</w>", "ative</w>", "atins</w>", "contr0ls</w>", "iindustry</w>", "act</w>", "gain</w>", "16.0%</w>", "94.", "stong</w>", "16.8%</w>", "usperior</w>", "comany</w>", "foo", "foundedd</w>", "anys</w>", "70</w>", "bi0medical</w>", "meth", "9000k,</w>", "istic", "tis</w>", "asiia</w>", "technologiees</w>", "organc", "comparative</w>", "mark", "shre</w>", "capabilu", "27.4%,</w>", "nes.</w>", "nuder</w>", "headoc", "disrpu", ",000,00,</w>", "aia</w>", "low</w>", "up9ra", "operati0na1</w>", "ane</w>", "facikity</w>", "1n</w>", "ate</w>", "resemb1", "14", "idance</w>", "$12,100,000,</w>", "remainedd</w>", "a9gressive</w>", "metn</w>", "rct</w>", "ined</w>", "30.1%,</w>", "1", "guidance</w>", "figuures</w>", "thse</w>", "0utperform</w>", "z", "ntum</w>", "automatically</w>", "ct</w>", "e5", "ecntered</w>", "timization.</w>", "atrget</w>", "$330,000,000,</w>", "halcyon</w>", "direct0r", "29.1%</w>", "ior</w>", "repurchsae</w>", "wi", "condit", "next-generation</w>", "e</w>", "tss</w>", "t0tal</w>", "ben</w>", "ec</w>", "supp1i", "stratgeic</w>", "scores</w>", "figured</w>", "whi1e</w>", "2,02", "lr</w>", "tre</w>", "maan", "audti</w>", "doc", "s0ftw", "expansion", "sef", "$2,020,</w>", "totla</w>", "taget</w>", "compettive</w>", "25.", "seg", "anticip", "0perational</w>", "facility</w>", "chen</w>", "4%,</w>", "encies</w>", "improvemments</w>", "glossary</w>", "grwe</w>", "tihs</w>", "remanied</w>", "24.8%,</w>", "surveys,</w>", "adta</w>", "guuidance</w>", "engineerin9,</w>", "econ0mic", "accoun", "eess</w>", "east", "28.7%,</w>", "29.9%</w>", "y", "actusl</w>", "ms</w>", "9ra", "permis", "lpo", "aceoss</w>", "31</w>", "vested</w>", "cuted</w>", "north</w>", "22.6%</w>", "32.1%,</w>", "rr</w>", "1ogy.</w>", "conidtions</w>", "outperform</w>", "projections</w>", "sha", "actively</w>", "cautious1y</w>", "al</w>", "grew</w>", "technology</w>", "tomer</w>", "13.7%</w>", "scre", "daata</w>", "1.7%</w>", "cists</w>", "prodduct</w>", "systems</w>", "macroecoon", "thornton,</w>", "buisness</w>", "intren", "comu", "declinde</w>", "28.6%</w>", "$5%</w>", "guiddance</w>", "expecrs</w>", "log", "function.</w>", "publicati0n</w>", "mitiagted</w>", "lts</w>", "to</w>", "expectations</w>", "aproved</w>", "3%</w>", "adjutments</w>", "82.", "expednit", "ti0ns,</w>", "alo", "yn", "benchmarkks,</w>", "guiadn", "926%</w>", "leading</w>", "upxoming</w>", "c0mpany</w>", ",36", "systen", "plat", "s0f", "syste", "funancial</w>", "rd</w>", "xhain</w>", "cauiously</w>", "31.5%</w>", "projections", "2k,</w>", "0peratin9</w>", "introduc", "quart", "rong</w>", "enent</w>", "expandin9</w>", "endit", "translated</w>", "neglig", "showde</w>", "patform</w>", "search</w>", "infrasttr", "supp1y</w>", "aal</w>", "aged</w>", "bally</w>", "meirdian</w>", "9r", "0k", "growtg</w>", "iv", "agreem", "conti", "nancial</w>", "aabout</w>", "sourc", "6.$1%</w>", "custommer</w>", "antici", "establi", "benchmra", "tg", "pose", "ovr</w>", "midd1e</w>", "functions</w>", "nexac0re</w>", "expn", "framew0r", "prjoections,</w>", "quarterly</w>", "acr0", "hase</w>", "positi0n.</w>", "uring</w>", "20.7%</w>", "macr", "su", "32.3%</w>", "counting</w>", "figures", "arative</w>", "year-over-year</w>", "fluctautions</w>", "otech</w>", "operar", "ayers</w>", "18.5%</w>", "expansion</w>", "hubss.</w>", "9.6%</w>", "gested</w>", "hen</w>", "curity</w>", "ciplined</w>", "sara", "appr0ximate</w>", "260%,</w>", "eration</w>", "majo", "environm", "sence</w>", "ll</w>", "delivery</w>", "hubs</w>", "jd", "b,</w>", "performaance</w>", "30.3%,</w>", "4,</w>", "ablished</w>", "ah", "wiht</w>", "13.2%</w>", "bech", "sourcing</w>", "capitak</w>", "weakneses</w>", "survey", "fol1owing</w>", "ying</w>", "cresltine</w>", ",300000,</w>", "up</w>", "se9ments</w>", "guidanc", "optimization.</w>", "organi", "daa</w>", "disruptio", "gu</w>", "ice</w>", "2,023", "omp", "positi0n</w>", "dedicaetd</w>", "macroecoonomic</w>", "reguk", "accoount</w>", "$289,000,000,</w>", "s0ftware.</w>", "matting</w>", "declin", "suppli", "prior</w>", "enginering,</w>", "busi", "di", "r0n", "92</w>", "currenies.</w>", "mentt</w>", "9rowth</w>", "lats</w>", "enery</w>", "12", "nwx", "fi9ure</w>", "8.", "rrevenue</w>", "producct</w>", "robust</w>", "aha", "decli", "mics</w>", "2.1%</w>", "ni", "$216,000,000,</w>", "next-generati0n</w>", "figures</w>", "resemblance</w>", "g.</w>", "ld</w>", "3.7%</w>", "omic</w>", "manah", "resaerch</w>", "2.6%</w>", "headcoo", "buiness</w>", "c0unt</w>", "dynq", "repor", "hwile</w>", "qus", "27.1%,</w>", "14.3%</w>", "differ", "vyiing</w>", "autommation,</w>", "sourccing</w>", "portfoli", "rrates</w>", "enhaged</w>", "onveil</w>", "sratus</w>", "exepn", "400,000,</w>", "ensr", "technologies</w>", "qn", "$7%</w>", "tion</w>", "nology</w>", "lication.</w>", "verison.</w>", "oviders</w>", "sem", "$32,400,000,</w>", "outper", "noo", "eyar</w>", "22", "this</w>", "end.</w>", "cots</w>", "24.3%,</w>", "righ", "technol0g", "oc", "30.8%,</w>", "400000,</w>", "refletcing</w>", "21.8%</w>", "ust", "88", "a1", "ya", "dtaa</w>", "peru", "gopolitical</w>", "5%,</w>", "companys</w>", "87.", "$83.", "atwd</w>", "purposes</w>", "ac</w>", "ement</w>", "framew", "biotechs</w>", "sh0", "pproduct</w>", "georgaphies</w>", "oeriod.</w>", "pl", "coontinued</w>", "sst", "continuedd</w>", "leaed", "mak", "gic</w>", "fform</w>", "ecr", "inc0nsistencies</w>", "edical</w>", "previo", "8,000,000</w>", "proj", "p", "peri0ds</w>", "de1iver</w>", "toal</w>", "ated</w>", "lined</w>", "17.9%</w>", "mu", "partn", "l0gy</w>", "$40,700,000</w>", "$85.", "$15", "met", "supp0rted</w>", "ership</w>", "reemained</w>", "ref1ects</w>", "year", "a1locates</w>", "pric", "infrastructure", "bod", "$254,000,000,</w>", "markket</w>", "portfoli0</w>", "p0rtfolio</w>", "95.", "uder</w>", "sgement</w>", "s1", "000000", "positipn", "tern", "29</w>", ",600000,</w>", "52</w>", "18.4%</w>", "$4.0%</w>", "suppo", "9ic</w>", "uptions</w>", "methodo", "erport", "revnue</w>", "scape</w>", "fiinancial</w>", "infrat", "ati0ns</w>", "$21.", "xependiture</w>", "geopolitic", "roeconomic</w>", "cu", "serviice</w>", "energ</w>", "indud", "opear", "atttrition</w>", "supplier", "ficant</w>", "rec0rds</w>", "optimist", "d,</w>", "be", "boo", "uidance</w>", "menr</w>", "infrasrt", "reign</w>", "qui", "13.", "ree", "59</w>", "regulatry</w>", "sysem", "eur", "manufacturnig</w>", "acrross</w>", "ratse</w>", "cor</w>", "rise</w>", "inn0", "28.1%</w>", "sements</w>", "47</w>", "reu", "tic", "negli9ible</w>", "aprpoved</w>", "resaer", "$31.", "prsued</w>", "iplined</w>", "contributng</w>", "tential</w>", "hib", "dl", "ug", "$25", "inv", "strogn</w>", "ert</w>", "consumer</w>", "expen", "electronic</w>", "rica</w>", "203%</w>", "mod", "tegy</w>", "90.3%,</w>", "headwon", "s0urcing</w>", "34.4%,</w>", "</w>", "182%</w>", "262%,</w>", "86.8%,</w>", "marek", "marekts.</w>", "reglatory</w>", "29.7%,</w>", "cau", "94.4%,</w>", "viewed</w>", "notice</w>", ".</w>", "ibs</w>", "icca</w>", "noth</w>", "deveolp", "aud", "80.", "components,</w>", "vas", "14.4%</w>", "cise</w>", "dis", "emn", "22.7%</w>", ",000", "ith</w>", "$20", "macroecoonmic</w>", "mitigtaed</w>", "su9gested</w>", "vyingg</w>", "79%</w>", ".t</w>", "dce", "figu", "toduced</w>", "00000", "14.1%</w>", "ent</w>", "data</w>", "environment.</w>", "qsia</w>", "contnued</w>", "$452,000,000,</w>", "inveted</w>", "optimistci</w>", "9u", "introdduced</w>", "49", "$18.2%</w>", "prro", "comppany</w>", "net</w>", "deve1op", "r,</w>", "interal</w>", "unit", "currecny</w>", "ge.</w>", "llowing</w>", "monit0ring</w>", "initaitives</w>", "87.8%</w>", "eleectronics</w>", "cutsomer</w>", "thruo", "directors</w>", "30,1", "ely</w>", "inn", "ise</w>", "tota", "0ka", "ladn", "reproduced</w>", "developmen</w>", "acr", "format", "acto", "1,000,000</w>", "mari", "12.7%</w>", "11.4%</w>", "euroe", "ener9y</w>", "finan", "stq", "rnage.</w>", "ca</w>", "segmennts</w>", "bg</w>", "termino", "151%</w>", "dou", "across</w>", "men", "ho", "ptal</w>", "headwin", "87.9%,</w>", "c0nso", "estim", "ei", "regula", "13.5%</w>", "expnading</w>", "imt", "manahement</w>", "proac", "8.0%</w>", "benchmark", "em", "alig", "justments</w>", "rs", "intrnal</w>", "28.5%</w>", "see</w>", "dynma", "$245,000,000,</w>", "akly</w>", "sarah</w>", "9.3%</w>", "var", "urements</w>", "ci</w>", "tive", "ibu", "uf", "fiug", "suppory,</w>", "n0t</w>", "sary</w>", "document</w>", "tr", "dt</w>", "26.0%,</w>", "imization.</w>", "s0lely</w>", "approva1s.</w>", "lnes.</w>", "expenditur", "requi", "pates</w>", "f0r</w>", "tsr", "fu", "1ast</w>", "costt</w>", "31.8%,</w>", "inf0r", "components.</w>", "enanced</w>", "wihle</w>", "per</w>", "tiom</w>", "meth0dology.</w>", "impor", "o</w>", "accross</w>", "bee", "noted</w>", "o", "ected</w>", "f</w>", "moent", "$9,200,000,</w>", "macro", ",100000</w>", "on", "vyy", "edr</w>", "b0th</w>", "maeket</w>", "deve1opments</w>", "same</w>", "25.7%,</w>", "othrw", "vyyin9</w>", "yon</w>", "eg", "dsruptions</w>", "perid.</w>", "80.4%,</w>", "midl", "ing", "semgent</w>", "marr", "in,</w>", "crestlime</w>", "reflecying</w>", "agement</w>", "improv", "win", "cmopared</w>", "semic0n", "rehulatory</w>", "strongg</w>", "eenterprise</w>", "all0", "re9u", "halcy", "robert</w>", "operatiional</w>", "account</w>", "hub.</w>", "midlde</w>", "developp", "tan", "l09", "acore</w>", "$13.", "bodiess</w>", "as</w>", "advis", "sent.</w>", "we", "e.</w>", "aetd</w>", "systemms</w>", "ko", ".d</w>", "ifgures</w>", "tign</w>", "withi</w>", "adv", "mitigated</w>", "for,</w>", "exchan", "operati", "ory</w>", "contr0", "competitiv", "$24,300,000,</w>", "repur", "optimizati0n.</w>", "managw", "upconing</w>", "res</w>", "uni</w>", "king</w>", "conttinued</w>", "02", "macroec0nom", "mentum</w>", "communicated</w>", "ica,</w>", "tiions</w>", "botj</w>", "inoal</w>", "c0vers</w>", "g1obally</w>", "indutsry</w>", "hcain</w>", "h", "amics</w>", "its", "2020.</w>", "nair</w>", "who", "dec", "msjor</w>", "actua1</w>", "acro", "25.9%,</w>", "300,000</w>", "23.3%</w>", "thro", "strate", "ntinued</w>", "enngagement</w>", "vyin9</w>", "gnment.</w>", "itech</w>", "expceted</w>", "crep", "ret", "$462,000,000,</w>", "itoring</w>", "9%</w>", "it1y</w>", "bu", "mittee</w>", "l0gistics</w>", "$79", "tinf</w>", "ternative</w>", "%,</w>", "shed</w>", "performanxe</w>", "cnotributing</w>", "ct0,</w>", "dtrategy</w>", "entepr", "bboth</w>", "suppl", "sd</w>", "2019,</w>", "suu", "exp1ic", "proactvi", "$272,000,000,</w>", "$198,000,000,</w>", "liers</w>", "econom", "c0ntained</w>", "deil", "aut0matic", "gan", "<que>", "fer", "excuted</w>", "1ic", "81.3%,</w>", "ths</w>", "logiess</w>", "sa", "20,</w>", "s0lutions.</w>", "engineering", "promo", "grotwh</w>", "cusomer</w>", "reviewed</w>", "infrastr", "apor", "cc0", "i0", "ctors</w>", "mi", "gures.</w>", "9.7%</w>", "unit.</w>", "significantt</w>", "4.6%</w>", "c0nversions</w>", "2.2%</w>", "believd</w>", "thia</w>", "asia</w>", "repurcah", "supporr", "positive</w>", "cuat", "un", "rems", "f1exib", "iwth</w>", "direc", "re1iability</w>", "36</w>", "26.6%,</w>", "headwonds</w>", "s0urces</w>", "pplayers</w>", "14.0%</w>", "reveneu", "si0n", "4000000,</w>", "repro", "54", ",500000,</w>", "ese</w>", "ssegment</w>", "sett", "32.9%</w>", "eer", "otherwisee</w>", "monit", "leadng</w>", "aance</w>", "92.8%,</w>", "pacif", "ts</w>", "dynanics</w>", "ws.</w>", "func", "rom</w>", "positively</w>", "perfor", "ific", "$22,700,000,</w>", "tarf", "q</w>", "tiion</w>", "anncial</w>", "adit</w>", ",r</w>", "acount</w>", "positiveyl</w>", "ecu", "momentum</w>", "eexecuted</w>", "21.0%</w>", "ability</w>", "shoulld</w>", "co0,</w>", "superi", "2.5%</w>", "scroe</w>", "27.0%,</w>", "cutiously</w>", "has</w>", "recor", "78.9%,</w>", "yr</w>", "23.5%</w>", "iled</w>", "bodise</w>", "posedd</w>", "la", "fluctu", "operait", "12.9%</w>", "$1,200,000,</w>", "next-genera", "ately</w>", "view", "dedicate</w>", "techn0", "25.6%</w>", "tely</w>", "olg", "cres", "des,</w>", "refl", "entetprise</w>", "loooking</w>", "acle</w>", "metodology.</w>", "lo9y</w>", "mit", "$19", "sistencies</w>", "centere</w>", "21.", "connsumer</w>", "optimiztaion</w>", "120%</w>", "tmi", "dn", "2023,</w>", "35%</w>", "apprvals.</w>", "-7.3%</w>", "show", "wih</w>", "provi", "c0ntrols</w>", "emlpo", "ak", "partners</w>", "enrtan", ",00", "s</w>", "be1ieved</w>", "ecurity</w>", "quirements</w>", "$21,700,000,</w>", "cfo", "ished</w>", "$43", "gr", "24.2%,</w>", "uniys.</w>", "infratr", "coomp", "peri0d</w>", "fii", "weak", "7.8%</w>", "bro", "pa9e</w>", "cto</w>", "c0mpetitive</w>", "b0dies</w>", "final</w>", "priicing</w>", "cotn", "durnig</w>", "96", "atess</w>", "$19,200,000,</w>", "developments</w>", "acc0unting</w>", "idustry</w>", "fu1l</w>", "dircetors</w>", "vyinng</w>", "5.3%</w>", "25.1%,</w>", "thrrough</w>", "multip1e</w>", "solutons</w>", "totl</w>", "permission</w>", "opit", "consuner</w>", "nto", "90.6%,</w>", "expp", "superu", "1ead", "96.4%,</w>", "erss</w>", "hadwinds</w>", "0o", "aydit</w>", "expansi", "so1utions.</w>", "compraative</w>", "eur0", "finac", "2,019,</w>", "ob", "demand</w>", "ino</w>", "31.1%,</w>", "be1ow</w>", "automati0n</w>", "dny", "setting", "ilities</w>", "ecpnomics.</w>", "$499,000,000,</w>", "flexibi1ity.</w>", "udance</w>", "ati0n.</w>", "revenue</w>", "remains</w>", "94.8%,</w>", "2,020,</w>", "c0nsent.</w>", "pior</w>", "$20,000,000,</w>", "ons.</w>", "54</w>", "dscape</w>", "acrsos</w>", "22.0%</w>", "arily</w>", "gener", "paci", "psoed</w>", "review", "unlesss</w>", "materia1</w>", "semi", "pprior</w>", "portf0lio</w>", "anc", "bs</w>", "exchangee</w>", "accountimg</w>", "rep0rtin9</w>", "onternal</w>", "introduced</w>", "durin9</w>", "electro", "3.2%</w>", "pr0jections,</w>", "wh0m</w>", "stratu</w>", "reportt</w>", "81.8%,</w>", "q2</w>", "regulatort</w>", "expansi0n</w>", "rily</w>", "approva1s</w>", "enteprrise</w>", "yeear</w>", "intor", "si9nificant</w>", "othr</w>", "structure</w>", "wa", "comparaitve</w>", "unitt</w>", "strong</w>", "deve1", "17.5%</w>", "unnit", "south</w>", "cai", "1m,</w>", "arah</w>", "allocates</w>", "$37", "cost", "centeref</w>", "a.</w>", "48", "6.2%</w>", "$4,300,000,</w>", "terminolo9y</w>", "$83", "asiaa</w>", "26.3%</w>", "noteed.</w>", "marrgin</w>", "rrency</w>", "finanx", "increase", "strnog</w>", "diff", "contin", "ance</w>", "2%</w>", "25.4%,</w>", "11.8%</w>", "technolo", "upgrades</w>", "continu", "ear</w>", "regu1at", "fact", "ati", "contiinued</w>", "trition</w>", "ddriven</w>", "financal</w>", "$9.8%</w>", "uno", "lidated</w>", "prio", "capitals</w>", "pr0jec", "si0ns</w>", "ary</w>", "met</w>", "indusrtial</w>", "sucvess</w>", "emo", "devee", "hs</w>", "j</w>", "le", "straegic</w>", "rs,</w>", "kets</w>", "regulatoory</w>", "bject</w>", "fom</w>", "acr0ss</w>", "ressive</w>", "9,000000,</w>", "reflcting</w>", "7.9%</w>", "expensi", "inx", "signifficant</w>", "loo", "16.", "20,000,000,</w>", "appe", "c1arifications</w>", "bus", "9n</w>", "robus", "img</w>", "aran", "allocted</w>", "29.2%</w>", "st</w>", "provo", "9,000,000</w>", "tisfaction</w>", "ti0n</w>", "infr", "0ry</w>", "rially</w>", "expand", "approve</w>", "pac", "cusyomer</w>", "wiith</w>", "$2,400,000,</w>", "maintai", "obdies</w>", "184%</w>", "man", "edliver</w>", "annual</w>", "logist", "subej", "industy</w>", "utn</w>", "frpm</w>", "coonsumer</w>", "africca</w>", "conditions</w>", "700000,</w>", "expecte", "ore</w>", "sttrong</w>", "macrroeconomic</w>", "durign</w>", "2.4%</w>", "financiial</w>", "sh", "3%,</w>", "under</w>", "5</w>", "cos", "up", "nex-", "earl", "faciltiy</w>", "os", "s0ftware</w>", "aff</w>", "not</w>", "logy.</w>", "may</w>", "cvers</w>", "al1ocated</w>", "37", "$41,300,000,</w>", "analytics,</w>", "finnacial</w>", "ve</w>", "ssourcing</w>", "33.5%,</w>", "irng</w>", "electronics,</w>", "2,000,000,</w>", "5upp", "missionn</w>", "anal", "custoner</w>", "fr0m</w>", "op", "m0nitoring</w>", "increased</w>", "duriing</w>", "sho", "dedicated</w>", "functio", "ervenue</w>", "enga9ed</w>", "sperior</w>", "tin</w>", "$2%</w>", "organization</w>", "nex</w>", "msrket</w>", "mae", "identifid</w>", "stic</w>", "scores.</w>", "gment</w>", "tion.</w>", "supported</w>", "that</w>", "measured</w>", "ands", "80%</w>", "ion", "ott", "negligib1e</w>", "enerr", "compan</w>", "portffolio</w>", "ding</w>", "committment</w>", "12.2%</w>", "maintaining</w>", "fgi", "engineer", "imporvements</w>", "2.0%</w>", "yb", "reso1u", "located</w>", "$401,000,000,</w>", "wthout</w>", "119%</w>", "$41", "enterpr", "tiively</w>", "remaain</w>", "81.", "chhanges</w>", "insr", "organizati0n</w>", "enterpri", "$$48", "disruption", "hi", "disruptoins</w>", "belp", "continuued</w>", "en9ineering,</w>", "strial</w>", ",7", "infrastrucu", "c0ntributing</w>", "regulatory</w>", "cusstomer</w>", "innitiatives</w>", "22.1%</w>", "discio", "coincidental</w>", "116%</w>", "reflec", "dedicate", "ders</w>", "cybersecurity</w>", "figurees</w>", "stru", "2.9%</w>", "hqlcyon</w>", "lowing</w>", "aattrition</w>", "impro", "sysems.</w>", "curency</w>", "geo", "jam", "ar,</w>", "2,023,</w>", "structure,</w>", "discipli", "ara", "est</w>", "rx", "centw", "18.0%</w>", "quu", "sh0wed</w>", "9", "macroecono", "rep0r", "norh</w>", "it", "expend", "cautioysly</w>", "20.</w>", "prioor</w>", "0m", "ar.</w>", "meto", "delier</w>", "93.9%,</w>", "ref1ect</w>", "fo1lowing</w>", "semicon", "out</w>", "43,9", "quis", "reliable</w>", "groups</w>", "$49,100,000,</w>", "flexib", "1n", "customre</w>", "6,</w>", "herein</w>", "ahead,</w>", "10", "pr0gram</w>", "manageement</w>", "borad</w>", "add", "ic,</w>", "managemennt</w>", "xim", "sources.</w>", "hirnig</w>", "hlcyon</w>", "headwids</w>", "middl</w>", "orn", "ny</w>", "5ah", "edmand</w>", "outperfomr</w>", "ading</w>", "1eadership</w>", "headcoount</w>", "optimi", "monito", "wirh</w>", "25.6%,</w>", "61", "2000,000,</w>", "ilit", "presence</w>", "%</w>", "clu", "ind", "us1y</w>", "unis.</w>", "19.$2%</w>", "2.$4%</w>", "manufacturings</w>", "prdouct</w>", "expce", "cuts", "$15</w>", "perood</w>", "19.4%</w>", "yee</w>", "otuput</w>", "sented</w>", "decclined</w>", "0ff", "ativ", "engineeering,</w>", "ough</w>", "unu", "conssumer</w>", "engagement</w>", "tives</w>", "96%</w>", "strat", "aloke.</w>", "upcom", "$251,000,000,</w>", "continude</w>", "firm</w>", "maintainin9</w>", "13.0%</w>", "challenge", "guaranteed.</w>", "booard</w>", "crestlin", "incude</w>", "in</w>", "16.3%</w>", "23.3%,</w>", "coost</w>", "outpeer", "prvider</w>", "age", "codt</w>", "approximately</w>", "overal</w>", "markt</w>", "biotch</w>", "pprogram</w>", "45</w>", "captured</w>", "0000", "eng", "lu", "79", "identifi", "contibued</w>", "trial</w>", "x", "ugh</w>", "nued</w>", "attritio", "208%</w>", "oveer</w>", "grades</w>", "interprting</w>", "ins</w>", "ty,</w>", "wwill</w>", "custoomer</w>", "roub", "ech", "000k</w>", "46</w>", "rpicing</w>", "icitly</w>", "ie", "sharre</w>", "ill</w>", "ran9e", "n,</w>", "primarrily</w>", "do</w>", "strict1y</w>", "5%</w>", "geo9r", "hubbs.</w>", "contact</w>", "momenttum</w>", "strategy</w>", "execu", "29.4%</w>", "u5d</w>", "anl</w>", "ong</w>", "ainability</w>", "used</w>", "eo", "conid", "compon", "projections,</w>", "15.3%</w>", "yo", "biotec", "t0", "movem", "frmo</w>", "29.3%</w>", "exepnditure</w>", "re9ional</w>", "yearr,</w>", "component", "ip</w>", "informa", "envir0nment</w>", "publication.</w>", "$45", "fications</w>", "f0unded</w>", "st", "po", "$92.", "dies</w>", "ir", "94.9%,</w>", "expendi", "q3</w>", ",00,</w>", "yaer,</w>", "expectati0ns</w>", "reportin", "mainta", "$26", "intiiatives</w>", "28.8%,</w>", "techn0logy</w>", "mne", "sttr", "9eographies</w>", "cusy", "automation.</w>", "rpior</w>", "terminology</w>", "ttoal</w>", "es", "clude</w>", "sug9ested</w>", "soc", "retent", "85.5%,</w>", "$2%,</w>", "cybersecr", "duct", "rel", "optimizatio", "ifn", "cusro", "com", "condi", "units.</w>", "enhag", "thiss</w>", "expcets</w>", "board</w>", "reserved", "pla", "28", "ubit</w>", "technolo9y</w>", "m0vements</w>", "37.$3%</w>", "6", "sustain", ",4", "capabi1", "bot", "primar", "maat", "pp", "patel,</w>", "ana1", "terprise</w>", "headcountt</w>", "deliv", "rrgulatory</w>", "vers</w>", "ss", "ucstomer</w>", "1.3%</w>", "crest", "aletrnative</w>", "1y.</w>", "ccompliance</w>", "21.5%,</w>", "ln", "bench", "mater", "bi0", "cture</w>", "optimzi", "managment</w>", "sservice</w>", "ure</w>", "delivey</w>", "unk", "al", "rehional</w>", "satisfaction</w>", "marg", "23.1%,</w>", "adjustm", "ironv", "urchase</w>", "$25,000,000,</w>", "ace</w>", "9.00%</w>", "$3.7%</w>", "134%</w>", "pliers.</w>", "algin", "providerrs</w>", "headwim", "onal</w>", "$5%,</w>", "aacross</w>", "oking</w>", "initiat", "rport</w>", "$96", "lookng</w>", "23</w>", "undet</w>", "9n", "n.</w>", "aagement</w>", "uniit</w>", "during</w>", "33</w>", "$2.", "perod.</w>", "mo</w>", "lt</w>", "$2,023", "fi", "89.5%,</w>", "custoer</w>", "15.1%</w>", "cust0", "od</w>", "co,</w>", "thes</w>", "teport</w>", "$3%</w>", "audi", "gram</w>", "globally</w>", "dustrial</w>", "solut", "laitn</w>", "np5</w>", "directo", "flexibil", "ain", "poetn", "primari", "t", "rep0rting.</w>", "$325", "unicated</w>", "200", "iton</w>", "thrse</w>", "litical</w>", "invetsed</w>", "29", "esented</w>", "cntinued</w>", "accountng</w>", "27.1%</w>", "ia1</w>", "cybersecur", "entraants</w>", "1</w>", "$15,900,000,</w>", "dring</w>", "dat", "segemnt</w>", "poesd</w>", "15</w>", "95.6%,</w>", "oeriods</w>", "supp1iers.</w>", "multipke</w>", "subjectt</w>", "16</w>", "suggest", "wihout</w>", "$48", "14.5%</w>", "official</w>", "totak</w>", "industries</w>", "21.3%</w>", "align", "leaedrship</w>", "0ther</w>", "stood</w>", "thsi</w>", "prp", "reneawb", "rastructure</w>", "las</w>", "method0logy.</w>", "looking</w>", "de", "0per", "supplierrs.</w>", "dynamics</w>", "3.0%</w>", "jud", "inn0vative</w>", "rep0rt.</w>", "negli9", "records</w>", "epriod</w>", "21.4%</w>", "declining</w>", "bs", "$51,000,000,</w>", "emplyo", "thus</w>", "flucutations</w>", "22.8%</w>", "inte9ration,</w>", "tjis</w>", "supp0rt</w>", "gr0", "techno1og", "eing</w>", "provod", "sec", "fidenti", "il</w>", "projecti0ns,</w>", "$422", "23.9%</w>", "differences.</w>", "aders</w>", "dit", "undr</w>", "re1iab", "tec", "unt</w>", "16.9%</w>", "neg1igible</w>", "tiy</w>", "91.6%,</w>", "3.8%</w>", "1ndustries</w>", "africa,</w>", "init", "vy", "$1%</w>", "cstomer</w>", "ful1-time</w>", "xustomer</w>", "approxiamtely</w>", "1u", "$23", "moment", ",47", "organica1ly</w>", "conomics.</w>", "deveelopments</w>", "emis", "n0rth</w>", "majorr</w>", "period.</w>", "yst", "17.$8%</w>", "upr", "thrugh</w>", "00,000</w>", "headc0unt</w>", "r</w>", "reeflects</w>", "shareed</w>", "integratio", "enti0n</w>", "proximately</w>", "suub", "thrpugh</w>", "boatd</w>", "empl0yed</w>", "sstrong</w>", "demad</w>", "183%</w>", "cm", "ip", "28.3%</w>", "vements</w>", "ad", "key</w>", "the", "erly</w>", "companya</w>", "alignmen", "leadership</w>", "sah", "cf0,</w>", "ecob", "sahred</w>", "mained</w>", "fniancial</w>", "17.7%</w>", "iddentified</w>", "provied", "pinn", "webb", "commitee</w>", "evd</w>", "$181", "2020,</w>", "perviously</w>", "hir", "$223,000,000,</w>", "qusrter</w>", "wn</w>", "anticipates</w>", "iinfrastructure</w>", "ca", "entrants</w>", "serviec</w>", "er</w>", "m,</w>", "exped", "howe", "indsu", "27", "later</w>", "$35,800,000,</w>", "36", "nologies</w>", "cf0", "deveo", "platfirm</w>", "team", "refleect</w>", "egnaged</w>", "frameworkd</w>", "aasia</w>", "custome</w>", "usccess</w>", "eed</w>", "functipn", "inued</w>", "solutions</w>", "ention</w>", ",000,000</w>", "aned</w>", "sttratus</w>", "26%</w>", "icial</w>", "earch</w>", "21.7%</w>", "l-", "ratea</w>", "atr", "cint", "coincidenta1</w>", "ions,</w>", "$42", "next-gener", "tes", "ting</w>", "mintaining</w>", "geograp", "preting</w>", "stratus</w>", "dedic", "tratus</w>", "opreating</w>", "ility.</w>", "ref1", "kimu", "ersions</w>", "19.", "57,</w>", "present", "136%</w>", "geogra", "beow</w>", "se", "ross</w>", "chal1enges</w>", "83,</w>", "advid</w>", "actu", "19,</w>", "aemrica</w>", "a9ement</w>", "sct", "$221,000,000,</w>", "electronics.</w>", "entr", "refllects</w>", "position</w>", "alndscape</w>", "figure.</w>", "cjain</w>", "attrit", "43", "rtes</w>", "sys", "rs</w>", "eco", "ssales,</w>", "wtih</w>", "proved</w>", "3000,000,</w>", "provider</w>", "ernative</w>", "ains</w>", "reh", "line</w>", "electroon", "urcing</w>", "-sah", "84.2%,</w>", "dediicated</w>", "9eogr", "egaged</w>", "sub-sahar", "or9anically</w>", "taed</w>", "bennchmarks</w>", "invesetd</w>", "es.</w>", "poses</w>", "covrs</w>", "nial</w>", "employed</w>", "analytics.</w>", "tipn", "alternative</w>", "entet", "30%</w>", "primarily</w>", "5", "opeer", "purposes.</w>", "coves</w>", "qp", "ve", "exis", "stt", "unnits.</w>", "usd</w>", "19.8%</w>", "tipn</w>", "perip", "thr0u", "ali", "16.7%</w>", "cp", "p0", "pro9ra", "performance</w>", "port", "duced</w>", "pwr", "$25.", "integration,</w>", "s0lutions</w>", "cybersecuri", "performannce</w>", "depending</w>", "39", "sued</w>", "de1ivery</w>", "ments</w>", "cob", "tis", "9,000000</w>", "rmained</w>", "solutin", "ginancial</w>", "reflet", "peridos</w>", "k.</w>", "geopolitical</w>", "hql", "supprot,</w>", "ak</w>", "pate1,</w>", "cauti0usly</w>", "ively</w>", "bodies</w>", "teams</w>", "cility</w>", "figrues</w>", "technollogies</w>", "84.9%,</w>", "l0gy.</w>", "copmany</w>", "proactive1y</w>", "clouf</w>", "im</w>", "$27", "mar9", "sa1", "$$8", "85.9%</w>", "ab0ut</w>", "marketss.</w>", "introd", "rq", "infrastrucy", "69</w>", "re1iability,</w>", "55,</w>", "cha", "cyon</w>", "0</w>", "devleopment</w>", "manag", "ued</w>", "nig</w>", "controsl</w>", "integrati0n</w>", "disuptions</w>", "manufact", "totaeld</w>", "28.0%,</w>", "31.9%,</w>", "iro", "esstimates</w>", "6000k,</w>", "or9an", "ineer", "s0lara</w>", "throu", "92.3%,</w>", "14.8%</w>", "veltr", "15.", "preiod.</w>", "org", "2,</w>", "$38,300,000,</w>", "acounting</w>", "el,</w>", "kin", "5ub", "ements</w>", "3,100000,</w>", "strobg</w>", "ae</w>", "rec0rds.</w>", "finam", "ificant</w>", "repoor", "kined</w>", "maintain", ",700,000,</w>", "22.4%</w>", "termin", "ibility.</w>", "references</w>", "icing</w>", "91.4%,</w>", "$5", "adjystments</w>", "promoter</w>", "unn", "geographi", "geogr", "ag9", "compliaance</w>", "marin</w>", "about</w>", "n0r", "audiit</w>", "fi9", "fou", "measuted</w>", "regulat0ry</w>", "19.9%</w>", "regulatroy</w>", "en9es</w>", "viders</w>", "c0incidental</w>", "reguatory</w>", "ceo</w>", "ironvwil</w>", "envir", "$8", "though</w>", "oslutions</w>", "gee</w>", "lookin9</w>", "oo", "overll</w>", "tarfet</w>", "lt", "us", "thri", "ology</w>", "itons</w>", "engag", "enegry</w>", "negligib", "jo", "complianc</w>", "discip1ined</w>", "semiconnductor</w>", "chh", "sytems</w>", "ility</w>", "eridian</w>", "ir</w>", "82.7%,</w>", "identi", "$6%</w>", "confi", "lio</w>", "bto", "consi", "perf0rmance</w>", "roobust</w>", "12.$8%</w>", "17</w>", "trans", "purp0", "48%</w>", "operayional</w>", "thi</w>", "company</w>", "adjust", "finanvial</w>", "$17.4%</w>", "9ain</w>", "rial</w>", "tri", "1idated</w>", "ull</w>", "capabilitoes.</w>", "ht</w>", "differntiated</w>", "am</w>", "n0</w>", "complince</w>", "satis", "revwnue</w>", "cess</w>", "ronics.</w>", "sug", "0rganization</w>", "approval", "9h</w>", "sup", "withou", "ten", "28</w>", "4,000,000</w>", "acne</w>", "foll0", "flexibilit", "techno", "tions,</w>", "96.7%,</w>", "projectionns</w>", "netx</w>", "17.3%</w>", "soluti0ns</w>", "bith</w>", "approved</w>", "fo", "appo", "lance</w>", "m0n", "mep", "9eograp", "isticss</w>", "stromg</w>", "maj", "$82,000,000,</w>", "pate", "orbust</w>", "folloowing</w>", "17.8%</w>", "86.6%,</w>", "20.4%,</w>", "gy.</w>", "toatl</w>", "cotss</w>", "orbbis</w>", "chanfes</w>", "iz", "neterprise</w>", "-over-year</w>", "financiaal</w>", "m</w>", "loca1</w>", "envirronment.</w>", "right</w>", "geop", "alterns", "satisfacti0n</w>", "enterpris</w>", "$47,600,000,</w>", "strom", "develpo", "entee", "c0m", "infor", "prelimin", "peeiod.</w>", "ir0n", "compliiance</w>", "ainab", "consmuer</w>", ",400000,</w>", "emp1o", "empko", "lea", "$2,021", "wjen</w>", "operating</w>", "cape</w>", "45%</w>", "ess", "800,000,</w>", "timistic</w>", ",0000", "0ver</w>", "addres", "agree", "mitment</w>", "approxiimately</w>", "rgowth</w>", "meth0do", "yea,</w>", "p0sitive</w>", "26</w>", "ove</w>", "iden", "pinnn", "arcoss</w>", "initai", "envir0nment.</w>", "operationa</w>", "servie</w>", "$33", "notr", "$46", "techon", "c,</w>", "technica1</w>", "prir</w>", "29.", "pircing</w>", "ks,</w>", ",200", "25.0%</w>", "traction</w>", "copanys</w>", "164%</w>", "1ogistics</w>", "hies</w>", "g1", "sale,</w>", "p</w>", "otherwi", "revenu", "of</w>", "ustments</w>", "action,</w>", "hat</w>", "servi", "s0urc", "eaast</w>", "tual</w>", "preiod</w>", "robut</w>", "ccustomer</w>", "core</w>", "cossts</w>", "posi", "$372,000,000,</w>", "subjec", "up9rades</w>", "economi", "57</w>", "cto", "below</w>", "reso", "bi0tech</w>", "$4", "poer", "$25</w>", "hubs..</w>", "publised</w>", "3m,</w>", "defined</w>", "developm", "reporting.</w>", "n", "000k,</w>", "1ocal</w>", "sub-5aharan</w>", "ddifferentiated</w>", "operaional</w>", "refulatory</w>", "followi", "93.6%,</w>", "reproting</w>", "uput</w>", "30.8%</w>", "wil", "develpoment</w>", "egic</w>", "5.8%</w>", "unfer</w>", "sal", "capabili", "expenn", "ke</w>", "flucut", "9%,</w>", "3</w>", "ically</w>", "c1ou", "improvemeents</w>", "segmen</w>", "inno", "$12.1%</w>", "ahed", "oter</w>", "docu", "suth</w>", "prdou", "uh", "ff", "93.0%,</w>", "uture</w>", "ds</w>", "centered</w>", "crestli", "robu", "positievly</w>", "to", "emplo", "supero", "leadin9</w>", "ki", "operstional</w>", "b0ard</w>", "wil1</w>", "reflect</w>", "opper", "ech</w>", "ds", "groo", "uon</w>", "direcctors</w>", "expenditu", "20.9%,</w>", "ke.</w>", "managemeent</w>", "capabilito", "dirce", "mitigatd</w>", "rane.</w>", "aranteed.</w>", "84.5%,</w>", "signiic", "165%</w>", "cybers", "19.2%</w>", "37.9%</w>", "twd</w>", "eu", "mar", "rep0rted</w>", "$3", "4.4%</w>", "thout</w>", "0rgan", "methoo", "obard</w>", "eer</w>", "reg", "sc0res,</w>", "800k,</w>", "innovaive</w>", "intr0", "ates</w>", "foundded</w>", "crur", "gin", "lookinng</w>", "ung</w>", "opers", "pursu", "ity,</w>", "operaitonal</w>", "mon", "87.3%,</w>", "alyst</w>", "$40,700,000,</w>", "pee", "boht</w>", "ization</w>", "emnts</w>", "rregulatory</w>", "technol", "coo", "2023", "xh", "comp0nents.</w>", "engageed</w>", "exep", "markkets.</w>", "conditi0ns.</w>", "$68,000000,</w>", "frim</w>", "d.</w>", "cnsumer</w>", "$88.", "state", "ity.</w>", "port,</w>", "attri", "regulatoryy</w>", "ql", "entra", "32.4%,</w>", "ent.</w>", "increa", "financila</w>", "nch", "comp0nents</w>", "remaind</w>", "positiv", "wii", "87.6%,</w>", "solutinos</w>", "27.4%</w>", "remsined</w>", "mn", "alignment.</w>", "wh", "margin</w>", "13.1%</w>", "vial</w>", "cahin</w>", "puub", "energy</w>", "1l</w>", "c0nsolidated</w>", "c0mmittee</w>", "aard</w>", "$9%</w>", "49</w>", "leaading</w>", "wj", "$4.", "rw", "next-generat", "coming</w>", "industr", "btoh</w>", "ad,</w>", "on9</w>", "asi</w>", "att", "faciity</w>", "semiconduct0r</w>", "p0sitively</w>", "compard</w>", "custmo", "unf", "portfo", "k,</w>", "olat", "hanced</w>", "forign</w>", "flexibili", "acrooss</w>", "internla</w>", "froom</w>", "anl", "19.</w>", "curt", "proviedrs</w>", "ai", "207%</w>", "y.</w>", "amr", "g,</w>", "$18", "vel", "nnext-generation</w>", "in9</w>", "servce</w>", "were</w>", "cosumer</w>", "intt", "internql</w>", "m0mentum</w>", "89.", "als.</w>", "$397,000,000,</w>", "copliance</w>", "inventor</w>", "2,021", "fi9ures</w>", "wi1l</w>", "6.$4%</w>", "29.$7%</w>", "bel0", "petio", "did", "dd</w>", "iew", "sured</w>", "cf", "ari", "21.5%</w>", "a11y</w>", "al1</w>", "rate</w>", "gree", "$35", "ge", "notrh</w>", "prrovider</w>", "mation</w>", "enterrise</w>", "rats</w>", "pto", "acquisiion</w>", "throguh</w>", "$7.6%</w>", "ness</w>", "48</w>", "fulll</w>", "interpretin9</w>", "5000k,</w>", "developmments.</w>", "ast</w>", "caputal</w>", "6%</w>", "26.", "nt</w>", "sts</w>", "17.4%</w>", "tota1</w>", "abou", "$8,200,000,</w>", "east</w>", "incidental</w>", "thid</w>", "fromm</w>", "lasst</w>", "apprp", "ted</w>", "thin</w>", "37.", "witth</w>", "software", "xost</w>", "antiicipates</w>", "webb</w>", "chan9", "subejct</w>", "delivet</w>", "al1ocates</w>", "miti", "rpovider</w>", "interp", "disr", "loking</w>", "oprating</w>", "resu1ts</w>", "39</w>", "l,</w>", "h0wever</w>", "compliane</w>", "bof", "municated</w>", "icnreased</w>", "0lu", "biomediical</w>", "thees</w>", "800000,</w>", "$17", "ornis</w>", "otherr</w>", "set", "nextt</w>", "previosu", "ursued</w>", "flexibiliy.</w>", "resoluti0n</w>", "resear", "approxi", "ul", "erw", "0therwise</w>", "$36", "ct", "pyb", "cr", "druing</w>", "psi", "sq", "devel0pment</w>", "frameworks</w>", "ronment.</w>", "0m,</w>", "ql</w>", "agreeme", ",900,000</w>", "laast</w>", "gible</w>", "reac", "$2,022</w>", "19.1%</w>", "enyer", "vised</w>", "rates</w>", "conrtibuting</w>", "exchan9e</w>", "repurc", "loi", "performan", "attritiob</w>", "inf</w>", "7%,</w>", "1.4%</w>", "95.1%,</w>", ",000</w>", "exapnsion,</w>", "ti0ns.</w>", "remanis</w>", "93.5%,</w>", "overall</w>", "lies.</w>", "jud9", "ing,</w>", "500,000,</w>", "peformance</w>", "60</w>", "np", "$91.", "reliabilityy,</w>", "$2,023,</w>", "lle</w>", "up9rades,</w>", "ana1ytic", "38%</w>", "facili", "currec", "is", "$30", "headqinds</w>", "outpeerform</w>", "resemb1ance</w>", "$17,000,000,</w>", "etn", "5tratus</w>", "engaagement</w>", "semiconduct", "dat</w>", "buis", "repurchasee</w>", "figru", "intr0duced</w>", "pub1ic", "ductor</w>", "grwth</w>", "repurchase</w>", "dyyn", "dec1ined</w>", "nment.</w>", "1ater</w>", "im", "only.</w>", "$1%,</w>", "units</w>", "$371,000,000,</w>", "ino", "11.1%</w>", "16", "urterly</w>", "comoanys</w>", "$4%,</w>", "chal1", "1,000000,</w>", "year-0ver-year</w>", "yeq", "k</w>", "cimp", "organically</w>", "accon", "disrutpions</w>", "slutions</w>", "upp", "rough</w>", "ssary</w>", "p0si", "sources</w>", "roubst</w>", "intg", "competitive</w>", "optimisti", "gl0", "ident", "alloacted</w>", "regio", "regullatory</w>", "confidential</w>", "expenditue</w>", "41</w>", "overal1</w>", "nent</w>", "estab", "tj", "222%</w>", "organiz", "customr</w>", "xeecuted</w>", "ppe</w>", "tim", "deiven</w>", "25.9%</w>", "uqarter</w>", "for", "0utput</w>", "veil</w>", ",9", "26.8%,</w>", "finaancial</w>", "18.", "64</w>", "95", "pugrades,</w>", "2m,</w>", "2,022.</w>", "197%</w>", "ributing</w>", "sn</w>", "pllat", "asa</w>", "superior</w>", "min", "leadig</w>", "rols</w>", "lutions</w>", "lud</w>", "exxpenditure</w>", "targt</w>", "witthin</w>", "rnage", "qurterly</w>", "poential</w>", "invest", "multi", "12.8%</w>", "bsuiness</w>", "soucre", "try</w>", "remq", "provdi", "1io</w>", "32.8%,</w>", "remaiend</w>", "tce", "t0</w>", "th", "emr</w>", "sustainabi1ity</w>", "audit</w>", "6</w>", "erd</w>", "reserves</w>", "inculde</w>", "inancial</w>", "compared</w>", "incu", "tracti0n,</w>", "12</w>", "uned</w>", "priarily</w>", "ineering,</w>", "continuef</w>", "fomr</w>", "conversions</w>", "5.5%</w>", "its</w>", "emoloyee</w>", "coverrs</w>", "5,000000,</w>", "taes</w>", "ly.</w>", "lude</w>", "overakl</w>", "orm</w>", "23", "amrket</w>", "infratsructure</w>", ",000,</w>", "maint", "indsutry</w>", "logsi", "biotech", "guidancr</w>", "main</w>", "noted.</w>", "yaer</w>", "inconsistencies</w>", "dynmaic,</w>", "oth", "appro", "fiugres.</w>", "serrvice</w>", "magr", "unleess</w>", "ligible</w>", "art", "yving</w>", "ttal</w>", "ecp", "rn", "priod</w>", "material1y</w>", "43%</w>", "0wn</w>", "suppor", "infrastructur", "8,</w>", "pacific", "multipple</w>", ",66", "compnay</w>", "thi", "orr</w>", "bor", "$8.2%</w>", "uness</w>", "nex", "platfor", "esd</w>", "17.", "inteegration,</w>", "pricig</w>", "kimura,</w>", "res,</w>", "no</w>", "vei1</w>", "strate9ic</w>", "inclued</w>", "ended</w>", "industria1</w>", "buting</w>", "proudct</w>", "95.5%,</w>", "contibuting</w>", "enhan", "driven</w>", "91.", "30</w>", "epansion</w>", "socres,</w>", "remainn", "providers</w>", "ectronics</w>", "pq", "projecti0ns</w>", "33,</w>", "xommitment</w>", "aletr", "bon</w>", "outp", "meridian</w>", "all0c", "hold</w>", "$89.", "ategic</w>", "1oc", "ironment.</w>", "20.3%</w>", "rem", "suupp", "7.2%</w>", "remaine</w>", "dq", "i1it", "gor", "fo,</w>", "jdgments</w>", "wilk</w>", "v", ".", "operatong</w>", "biomedcal</w>", "coev", "deli", "1at", "headq", "2022", "25</w>", "ible</w>", "-13.1%</w>", "ical</w>", "annua1</w>", "$9.2%</w>", "distribution</w>", "perios</w>", "iers.</w>", "disrut", "sae</w>", "conumer</w>", "driv", "facil", "86.", "screpanc", "haalcyon</w>", "stry</w>", "aa</w>", "abo", "dema", "l0cal</w>", "dir", "finabcial</w>", "optimisstic</w>", "82.0%,</w>", "ics,</w>", "p0sed</w>", "whiile</w>", "$22.", "softwra", "32%</w>", "increaesd</w>", "9.1%</w>", "framework", "preliminary</w>", "booth</w>", "subjext</w>", "hal", "intrn", "tn", "00k,</w>", "economics..</w>", "mistic</w>", "titive</w>", "infrrastructure</w>", "markets</w>", "2023.</w>", "formance</w>", "output</w>", "wed</w>", "heaad", "0d</w>", "ream", "emplooyee</w>", "qted</w>", "aproximately</w>", "et</w>", "f1exibi1ity.</w>", "22.2%</w>", "systes", "addressed</w>", "declinnig</w>", "depend", "operatioal</w>", "tehc", "eben</w>", "conso1idated</w>", "potne", "29.0%</w>", "4m,</w>", "ion</w>", "shar</w>", "ect", "curr", "tota1ed</w>", "declinong</w>", "econ0mics</w>", "reliability,</w>", "technolp", "of", "capita</w>", "allyy</w>", "reflectnig</w>", "en9aged</w>", "2021</w>", "pugrad", "sure</w>", "33.0%,</w>", "contat</w>", "st.</w>", "17.6%</w>", "$22", "ccontinued</w>", "strst", "permission.</w>", "strng</w>", "12.1%</w>", "96.5%,</w>", "viyng</w>", "145%</w>", "reflectng</w>", "33.8%,</w>", "$18800,000,</w>", "87", "quisition</w>", "wable</w>", "xompany</w>", "euted</w>", "etitive</w>", "-driven</w>", "scorea.</w>", "cons0lidated</w>", "resu", "divi", "a1-", "fina1</w>", "untis.</w>", "resem", "ks</w>", "9uarantee</w>", "figuers</w>", "$32.", "pwrformance</w>", "g1ob", "vely</w>", "a9g", "multiple</w>", "followin9</w>", "integration</w>", ",", "infrastrucyure</w>", "pubb", "regu1at0ry</w>", "a1ed</w>", "202</w>", "187%</w>", "cist</w>", "hubs.</w>", "electr0n", "81.6%,</w>", "ynit</w>", "euro", "uit</w>", "t.</w>", "ifnancial</w>", "poteential</w>", "challenges</w>", "maj0r</w>", "21.2%</w>", "re9", "methodo1ogy</w>", "dru", "coon", "en9", "win9</w>", ",200,000</w>", "aduit</w>", "cy", "2023</w>", "xon", "delivrey</w>", ",800000,</w>", "all0cates</w>", "differentiated</w>", "regi", "ica1</w>", ",600,000,</w>", "fluctua", "resu1", "dual</w>", "ancial</w>", "currncy</w>", "c0un", "rou", "an", "ig</w>", "iusly</w>", "44.", "4.2%</w>", "epr", "gent</w>", "ort</w>", "ana1ytics.</w>", "cpa", "ai-", "headwi", "qith</w>", "industi", "customee</w>", "fluct", "delivre", "conso", "optimiztai", "$97", "34.6%,</w>", "driben</w>", "31.", "ported</w>", "quarrter</w>", "ame</w>", "manage", "what</w>", "wti", "economic", "iclude</w>", "80.0%,</w>", "tigated</w>", "exer", "marke</w>", "ing.</w>", "cpmmitment</w>", "revvenue</w>", "$41,500,000,</w>", "halcon</w>", "not", "dwinds</w>", "wiyh</w>", "enrtants</w>", "tee</w>", "<unk>", "nths</w>", "16.1%</w>", "8.7%</w>", "figues</w>", "period,</w>", "7%</w>", "ee", "idated</w>", "finanxial</w>", "40", "epxects</w>", "shou", "9e</w>", "24.0%,</w>", "suppliers</w>", "usly</w>", "tial</w>", "issions</w>", "uin", "ya</w>", "many</w>", "fina", "pricing</w>", "a1s</w>", "atives.</w>", "judgments</w>", "2.", "1.2%</w>", "itiatives</w>", "upcoming</w>", "cting</w>", "conp", "ag", "capitaal</w>", "expandin</w>", "ear1ier</w>", "succeas</w>", "18", "ifications</w>", "follo", "m0dest</w>", "eb", "growrh</w>", "ential</w>", "ove", "du", "81,9", "figure", "hub.s</w>", "fu1l-time</w>", ",s</w>", "amic,</w>", "h</w>", "327%,</w>", ",1", "in9", "c0nsumer</w>", "guarantee</w>", "ha1", "ai</w>", "ais", "re1iable</w>", "discip", "d0", "exchange</w>", "dustr", "tiin</w>", "83.6%,</w>", "discrepancies.</w>", "complianc", "reliability</w>", "iss</w>", "iture</w>", "eeported</w>", "approxim", "differences</w>", "11.9%</w>", "service</w>", "ba", "finn", "developn", "last", "marc", "ge0graphies</w>", "alternati", "264%</w>", "pr", "9.%</w>", "2</w>", "sionn</w>", "152%</w>", "10.9%</w>", "oeprating</w>", "$2,020", "outperfoorm</w>", "posiively</w>", "aphies</w>", "investment</w>", "acros", "a1loc", "incident", "ativw</w>", "positipn.</w>", "ermained</w>", "pr0viders</w>", "had</w>", "13.9%</w>", "dun", "571", "compliancee</w>", "gre</w>", "ocntinued</w>", "78.6%,</w>", "previ0usly</w>", "pperiod</w>", "inder</w>", "pot", "25.4%</w>", "si0n</w>", "potential</w>", "refel", "ahea", "pir", "$2,020.</w>", "7.3%</w>", "1.6%</w>", "analsy", "meth0", "prohib", "cet</w>", "asme</w>", "20.0%,</w>", "1s</w>", "estimates</w>", "heer", "wing</w>", "entified</w>", "ucture</w>", "segments</w>", "roo", "rei", "operatioonal</w>", "no", "dynamic", "inte9ration</w>", "producy</w>", "30", "month", "opera", "55</w>", "dta", "ls</w>", "engineering,</w>", "80.8%,</w>", "cotinued</w>", "37</w>", "eith</w>", "1e</w>", "r0", "reoprt</w>", "148%</w>", "maintaininng</w>", "reneawble</w>", "drien</w>", "omics.</w>", "manufactu", "liver</w>", "chab", "pr0v", "cmo", "identified</w>", "mennt</w>", "repo", "optinistic</w>", "tform</w>", "methodolo9", "targ", "mployee</w>", "environmen", "aggressive</w>", "businesss</w>", "include</w>", "appr0", "mnts</w>", "annuual</w>", "approximate</w>", "mom", "122%</w>", "only</w>", "art</w>", "exo", "ffrom</w>", "erial</w>", "remi", "reements</w>", "mar9in</w>", "nexaccore</w>", "unting</w>", "proacti", "prjo", "previ0", "vasquez,</w>", "25.5%</w>", "c0mponents</w>", "28.6%,</w>", "periiods</w>", "wihtin</w>", "acc", "pr0duct</w>", "total", "888%,</w>", "operation", ",100", "terly</w>", "fin", "communic", "br", "aut", "environment</w>", "a1-driven</w>", "tiem</w>", "38", "1ines.</w>", "26.0%</w>", "prelim", "1og", "renewabl</w>", "23.4%</w>", "abour</w>", "writt", "latin</w>", "wiyh", "port.</w>", "struments</w>", "wast</w>", "group</w>", "methodol0gy.</w>", "execuyed</w>", "dynami", "enerated</w>", "adu", "ess.</w>", "wll</w>", "manufactur", "rgulatory</w>", "se9", "mnu", "supopr", "platorm</w>", "aggressi", "monitooring</w>", "yrar</w>", "6.0%</w>", "leadersi", "usiness</w>", "at</w>", "un1ess</w>", "33.2%,</w>", "caap", "yi", "iny", "offic", "oerformance</w>", "generation</w>", "$17,300,000,</w>", "ikity</w>", "chase</w>", "84.0%,</w>", "next-", "gowth</w>", "nexa", "thos</w>", "$8.1%</w>", "98", "ensuree</w>", "jud9ment</w>", "winds</w>", "contained</w>", "mvoements</w>", "primari1y</w>", "$7", "oka", "comp0n", "4.3%</w>", "periof</w>", "xe</w>", "34.$0%,</w>", "esnure</w>", "$28.", "pinnac1e</w>", "ytics</w>", "thruogh</w>", "comp1i", "28.4%</w>", "vid</w>", "enha", "aid", "mnaagement</w>", "21%</w>", "managemnet</w>", "lgistics</w>", "trans1ated</w>", "ocm", "srtong</w>", "written</w>", "fouded</w>", "ansion,</w>", "$24.", "0wth</w>", "f1", "4%</w>", "31.6%,</w>", "$146000000,</w>", "icss</w>", "vative</w>", "web", "opti", "middle</w>", "document.</w>", "acocunting</w>", "reflectin9</w>", "1e", "political</w>", "m", "ica</w>", "dtr", "6.0m,</w>", "alter", "strictly</w>", "geographies</w>", "initiatives.</w>", "unist.</w>", "csutomer</w>", "ent", "206%,</w>", "mnagement</w>", "tehse</w>", "reeport</w>", "ges</w>", "addressed.</w>", "team</w>", "enhagement</w>", "resolu", "ors</w>", "sugg", "aut0mation.</w>", "monitor", "hiring</w>", "contributin9</w>", "operay", "macroe", "83.5%,</w>", "strog</w>", "y</w>", "capit", "f0r", "bio", "infrast", "93.", "remins</w>", "s,</w>", "5.2%</w>", "financiall</w>", "get</w>", "oepr", "tech</w>", "biotech</w>", "figurws.</w>", "3,</w>", "ount</w>", "drvi", "22.9%</w>", "scor", "enxacore</w>", "$437,000,000,</w>", "pos", "reprt.</w>", "strrong</w>", "ear,</w>", "rectors</w>", "regiona1</w>", "sege", "$144,000,000,</w>", "sc0re</w>", "whole</w>", "signific", "yh", "devleop", "disciolined</w>", "oved</w>", "$346,000,000,</w>", "remain", "249%,</w>", "qu", "pri", "foorm</w>", "how", "reflce", "ver", "ss.</w>", "iconductor</w>", "vement</w>", "27.8%,</w>", "remaineed</w>", "integration", "pricin9</w>", "throug</w>", "ocer</w>", "caross</w>", "eenergy</w>", "prove", "diture</w>", "cresltin", "atri", "provier</w>", "able</w>", "15.6%</w>", "cov", "$6.", "provoders</w>", "flexibility</w>", "peeriod</w>", "ties</w>", "vre", "24,000,000</w>", "fu1l-", "competirive</w>", "perio", "2022,</w>", "700,000,</w>", "technologi", "whom</w>", "infrastru", "0rganically</w>", "20.", "exerc", "bodiees</w>", "arter</w>", "instrument", "cove", "dy", "0v", "flexibility..</w>", "etch", "ev", "okaf0r,</w>", "eas</w>", "revi", "hwen</w>", "acriss</w>", "$2,02", "ovals.</w>", "rveenue</w>", "positivly</w>", "lines</w>", "300k,</w>", "instruments,</w>", "cos</w>", "p0r", "reev", "deve1opment</w>", "a1ignment</w>", "time</w>", "8m,</w>", "repr", "priorr</w>", "slated</w>", ",900000,</w>", "makrets.</w>", "instru", "ot", "pub1ication</w>", "discrepanc", "groth</w>", "allo", "impr", "but</w>", "2021", "insrtu", "tion,</w>", "andscape</w>", "$35,400,000,</w>", "erwise</w>", "eering,</w>", "tified</w>", "notted.</w>", "thh", "managemment</w>", "sctual</w>", "5.4%</w>", "target</w>", "wrs</w>", "empl", "agre", "compi1ed</w>", "96.2%,</w>", "25", "tiple</w>", "menn", "growth</w>", "ra</w>", "accountin9</w>", "centerred</w>", "bpth</w>", "gn</w>", "ecn", "cal</w>", "$337,000,000,</w>", "$6,900,000,</w>", "eworks</w>", "mu1", "ormance</w>", "dustries</w>", "ve1", "tline</w>", "menst</w>", "yea,r</w>", "amic</w>", "11.", "oth</w>", "am", "majot</w>", "a1ly</w>", "alignem", "program</w>", "unti", "ures</w>", "cno", "$18100,000,</w>", "loy", "<doc>", "26.7%,</w>", "enhanec", "logistics</w>", ",500,000,</w>", "versions</w>", "ed.</w>", "automati0n,</w>", "0,000,000,</w>", "publi", "maarket</w>", "dance</w>", "next-9", "initiativees</w>", "dit</w>", "reoor", "34.9%,</w>", "0000,000,</w>", "sr</w>", "demn", "repor</w>", "africa</w>", "24.9%</w>", "materi", "ution</w>", "performanc</w>", "e1ectronics</w>", "3000k,</w>", "comanys</w>", "lity</w>", ",0000</w>", "ccess</w>", "petiod.</w>", "indutsr", "me</w>", "unde", "benchmarks,</w>", "audit", "nets</w>", "c0sts</w>", "34.2%,</w>", "chqin</w>", "fram", "28,000,000,</w>", "within</w>", "275%,</w>", "dee", "inf0rmation</w>", "estline</w>", "regioanl</w>", "remaained</w>", "18.8%</w>", "cuont</w>", "when</w>", "gulatory</w>", "021", "cus", "he", "$22,400000,</w>", "otp", "inten", "ing</w>", "isition</w>", "toaled</w>", "3", "halcyo</w>", "judgm", "finncial</w>", "comlp", "2,023</w>", "developmet</w>", "methodolo9y.</w>", "$41,200,000,</w>", "cop", "6,000,000,</w>", "2,021.</w>", "disc", "n0", "$38", "flctuations</w>", "9,000,000,</w>", "sysems</w>", "205%</w>", "controls</w>", "potent", "nexac", "delive", "c", "ords.</w>", "undre</w>", "te</w>", "devices,</w>", "purp0ses.</w>", "91.8%,</w>", "acquisition</w>", "nx", "5000,000,</w>", "9.4%</w>", "delined</w>", "approvla", "tin", "opperating</w>", "$78.8%,</w>", "technol0gy</w>", "sto0d</w>", "scoe", "ribution</w>", "$227", "consmu", "des</w>", "20.9%</w>", "ximate</w>", "ersecurity</w>", "ility", "targe</w>", "eneryg</w>", "commitment</w>", "otherwise</w>", "20.0%</w>", "practively</w>", "sotf", "targer</w>", "15", "headount</w>", ",200000,</w>", "earli", "0p", "t0t", "k", "secti0n</w>", "mont", "suppliers", "fl", "app", "figuees</w>", "re1i", "local</w>", "supporrted</w>", "cffo,</w>", "sot", "req", "ntoe</w>", "cons0", "10.3%</w>", "repotring</w>", "systeems.</w>", "ge</w>", "ched</w>", "sucve", "cometitive</w>", "ational</w>", "compiled</w>", "oribs</w>", "viously</w>", "compo", "80.6%,</w>", "con", "segmetns</w>", "intaining</w>", "1andscape</w>", "will</w>", "emissi0ns</w>", "enditure</w>", "sc0res.</w>", "sou", "coers</w>", "oduct</w>", ",600000</w>", "refelct</w>", "thede</w>", "prise</w>", "headinds</w>", "operat", "therwise</w>", ",663", "benchmraks,</w>", "manageent</w>", "kim", "nt.</w>", "agreements</w>", "thesse</w>", "ty.</w>", "consu", "201</w>", "ud", "pend", "shar", "u</w>", "peri0d.</w>", "sube", "infrastruc", "superuor</w>", "methodology</w>", ",0000,</w>", "c0mpiled</w>", "0re</w>", "improo", "platf0rm</w>", "chaiin</w>", "itroduced</w>", "uni", "idt</w>", "iance</w>", "iron", "next-g", "marggin</w>", "contiuned</w>", "deve1opments.</w>", "$11.", "ext</w>", "24.1%</w>", "techn0logies</w>", "89.6%,</w>", "prim", "esst</w>", "ts", "appr0vals.</w>", "end</w>", "tes</w>", "graphies</w>", "ty</w>", "contine", "d", "tig</w>", "d0</w>", "explic", "rks</w>", "26.4%,</w>", "tsrget</w>", "meents</w>", "10.", "cenetred</w>", "ced</w>", "9,</w>", "sl</w>", "atomation,</w>", "teention</w>", "8.3%</w>", "21.1%</w>", "0ut", "structure", "peroid.</w>", "go", "version</w>", "atory</w>", "competi", "sales,</w>", "figi", "econ0m", "enteerprise</w>", "renea", "ving</w>", "loyee</w>", "digures</w>", "established</w>", "year.</w>", "0r", "success</w>", "segmnt</w>", "custo", "sed</w>", "11.2%</w>", "altern", "explicit1y</w>", "contribu", "insrtuments</w>", "$28.6%</w>", "aran</w>", "trough</w>", "midddle</w>", "apprxo", "iniitiatives</w>", "repport.</w>", "invent0ry</w>", "cl0", "james</w>", "35</w>", "rh", "organic", "exercise</w>", "move", "$217,000,000,</w>", "a9reements</w>", "dnamics</w>", "optimizat", "itor", "regional</w>", "emploo", "teans</w>", "and</w>", "eved</w>", ",8", "dedi", "5ystems</w>", "cial</w>", "cah", "ow", "ys,</w>", "x</w>", "velopments</w>", "bdies</w>", "eentrants</w>", "sam</w>", "benchmarks</w>", "estimtaes</w>", "2,023.</w>", "xs</w>", "unir</w>", "91%</w>", "crurency</w>", "ners</w>", "logi", "26.9%</w>", "organci", "technical</w>", "whilw</w>", "$27,500,000,</w>", "landsccape</w>", ",366,</w>", "aut0mation,</w>", "18.3%</w>", "lal", "1.8%</w>", "unnit</w>", "giudance</w>", "markte</w>", "tionn</w>", "agreemen", "18</w>", "etd</w>", "strict", "prohibited</w>", "$2,022.</w>", "enr", "90,</w>", "peirod</w>", "flexibi", "proact", "dology.</w>", "etc</w>", "9.8%</w>", "spu", "bidies</w>", "2,000,000</w>", "9m,</w>", "uunt</w>", "abot</w>", "confidenti", ",79", "w", "w</w>", "perr", "engaged</w>", "27.0%</w>", "operattional</w>", "optimis", "part</w>", "unitts.</w>", "matrrial</w>", "ses.</w>", "ecur", "216%</w>", "electr0nics</w>", "gu", "exist</w>", "wise</w>", "lee</w>", "ofr", "reserve", "drivven</w>", "boaard</w>", "$67,000,000,</w>", "ative", "c0ntinued</w>", "aggreements</w>", "io", "flucu", "estab1ished</w>", "year-", "atde</w>", "regular", "figgures</w>", "7.0m</w>", "headwnid", "ener", "eeviewed</w>", "analytic", "cto,</w>", "functipns.</w>", "biomedic", "entity</w>", "partnerss</w>", "industri", "centwred</w>", "developpment</w>", "woth</w>", "deckined</w>", "bodied</w>", "expansion,</w>", "00", "paprovals.</w>", "inventory</w>", "poetntial</w>", "prr", "accounn", "sumer</w>", "america</w>", "development</w>", "$60</w>", "en9a9ement</w>", "nexavore</w>", "apprvoed</w>", "5outh</w>", "atus</w>", "unde</w>", "voerall</w>", "geop0", "cuatomer</w>", "400,000</w>", "$80.", "stron", "22.", "coo,</w>", "reso1ution</w>", "enterprie</w>", "yt</w>", "peiro", "itly</w>", "renewab", "9.", "oroviders</w>", "ization.</w>", "enregy</w>", "eiro", "posde</w>", "io</w>", "approximate", "throgu", "faciliyt</w>", "$66</w>", "monit0", "sion", "wd</w>", "managenent</w>", "$13.4%</w>", "super", "88.1%,</w>", "feom</w>", "sco", "dire", "ironvei1</w>", "12.3%</w>", "600000,</w>", "885%,</w>", "research</w>", "peri0", "copany</w>", "$424,000,000,</w>", "sions</w>", "systemss</w>", "cautioy", "reased</w>", "moni", "frame", "11.6%</w>", "driiven</w>", "groowth</w>", "headconut</w>", "nt", "count</w>", "rnts</w>", "gement</w>", "000000</w>", "anlay", "reliability", "faction</w>", "makre", "be1i", "founded</w>", "ou", "perid", "infratsr", "pre", "draft</w>", ",000,000,</w>", "imarily</w>", "reten", "cy</w>", "automat", "dynamic</w>", "businss</w>", "capabiliti", "ventered</w>", "ses</w>", "carb", "perior</w>", "jubs.</w>", "nexxt</w>", "complin", "qhen</w>", "appor", "tributing</w>", "iindustries</w>", "witg</w>", "es</w>", "00,000,</w>", "custom", "alignment</w>", "acroas</w>", "aut0ma", "remmained</w>", "inonvative</w>", "adj", "poo", "periods</w>", "ment", "ef</w>", "compp", "leader", "beo", "0nly.</w>", "cyb", "nanagement</w>", "toin</w>", "enhancd</w>", "mer", "reporti", "bitech</w>", "$39", "bioetch</w>", "ns</w>", "282%</w>", "chang", "part", "webb,</w>", "ket</w>", "dueing</w>", "tered</w>", "range..</w>", "$1", "inh</w>", "ecuted</w>", "1100,000,</w>", "biomedi", "vices</w>", "stronng</w>", "$34,600,000,</w>", "includ", "a1ike.</w>", "nxet</w>", "25.8%,</w>", "techno1ogy</w>", "ab", "okafor,</w>", "upc0ming</w>", "upcomin9</w>", "missiion</w>", "4</w>", "ition.</w>", "engineering</w>", "rate", "automatically.</w>", "ply</w>", "serv", "end", "opeating</w>", "c0st</w>", "encies.</w>", "empkoyee</w>", "cosst</w>", "invested</w>", "wn", "should</w>", "86.5%,</w>", "puursued</w>", "83.1%,</w>", "$2,023</w>", "p1ease</w>", "nexav", "stomer</w>", "macr0", "suuperior</w>", "urcha", "caput", "epx", "$28", "audt</w>", "ual</w>", "inte9r", "cmp", "infrasttructure.</w>", "0verall</w>", "tions</w>", "0%,</w>", "outside</w>", "entterprise</w>", "17.0%</w>", "dest</w>", "periodd</w>", "regi0nal</w>", "affect</w>", "mm</w>", "acco", "alternstive</w>", "21.0%,</w>", "ri", "peer", "developmnts</w>", "ad</w>", "fo1", "strstegy</w>", "industriess</w>", "upc0m", "d0cument.</w>", "section</w>", "cuon", "0t", "47%</w>", "port</w>", "15.9%</w>", "comapny</w>", "ooperati0nal</w>", "duct</w>", "measur", "20.2%</w>", "yar,</w>", "8.8%</w>", "88%</w>", "7", "cust0mer</w>", "compa", "eaknesses</w>", "8%</w>", "mea", "miasion</w>", "adjyst", "$11.2%</w>", "regularory</w>", "earlier</w>", "regu", "cauti", "sn", "marks,</w>", "3,000,000,</w>", "function", "$23.", "err</w>", "9.$9%</w>", "requirem", "1,</w>", "4.8%</w>", "outh</w>", "ann", "playes</w>", "itively</w>", "chen,</w>", "souricng</w>", "yy</w>", "ised</w>", "ahad,</w>", "bennch", "$9", "perio.</w>", "ratess</w>", "impr0v", "expan", "devices</w>", "showed</w>", "rship</w>", "gri", "emg", "10.4%</w>", "ring</w>", "ooerational</w>", "2,021</w>", "different", "covesr</w>", "material</w>", "soucres</w>", "57", "allocated</w>", "ents</w>", "capital</w>", "wil</w>", "00,000,000,</w>", "postiively</w>", "version.</w>", "14.6%</w>", "ep", "prom", "ooperational</w>", "d</w>", "alloc", "hain</w>", "iods</w>", "interpret", "29%</w>", "mand</w>", "000,000</w>", "rfl", "allenges</w>", "e1ectron", "83.", "p1ayers</w>", "electronics</w>", "tar", "pr0moter</w>", "$10,700,000,</w>", "hirinh</w>", "84.", "drivne</w>", "system.s</w>", "br0ader</w>", "av", "pinnaclle</w>", "cj", "ng</w>", "plicitly</w>", "pacific,</w>", "91.2%,</w>", "ye", "driectors</w>", "sustainabili", "share", "manaagement</w>", "whiel</w>", "superi0r</w>", "unless</w>", "i1", "$8%</w>", "perform", "semic", "rategy</w>", "6.5%</w>", "net", "wnts</w>", "paciic</w>", "plattform</w>", "infrastructuree</w>", "trac", "ate", "$2,021.</w>", "$6%,</w>", "121%</w>", "isn</w>", "native</w>", "capittal</w>", "omer</w>", "entory</w>", "0.", "reflects</w>", "$16.1%</w>", "5arah</w>", "12.4%</w>", "ac", "ib", "maesured</w>", "inal</w>", "performnce</w>", "ments.</w>", "ur", "xt</w>", "ea", "over-year</w>", "2.7%</w>", "$86", "umer</w>", "currencies.</w>", "sucecss</w>", "e1ectronics,</w>", "sive</w>", "fi9ures.</w>", "cover", "pa", "em</w>", "mommentum</w>", "en</w>", "ved</w>", "ctuations</w>", "pital</w>", "ta</w>", "weakn", "expected</w>", "m0nths</w>", "92.1%,</w>", "aem", "$0%,</w>", "$7,900,000,</w>", "opolitical</w>", "innovati", "at", "ictaed</w>", "america,</w>", "industry</w>", "ned</w>", "wile</w>", "28.", "initiati", "lo0king</w>", "yhrough</w>", "publish", "fluctau", "presenec</w>", "dd", "$2.9%</w>", "opre", "year,</w>", "14.2%</w>", "deilvery</w>", "saia</w>", "or9", "regual", "productt</w>", "looing</w>", "reevnue</w>", "jud9ments</w>", "orbs</w>", "24.2%</w>", "$365000,000,</w>", "ab1e</w>", "0kafor,</w>", "eas", "exc", "storng</w>", "meri", "avross</w>", "shh", "growr", "marketd.</w>", "25.3%</w>", "annu", "1o", "anges</w>", "shhare</w>", "cpaital</w>", "utperform</w>", "epriod.</w>", "busin", "thornt", "report.</w>", "cenet", "5,</w>", "ran", "0n", "adjut", "systems,</w>", "rep0rt</w>", "durng</w>", "yrar.</w>", "ratrs</w>", "ue</w>", "als</w>", "pacific</w>", "ulatory</w>", "cusromer</w>", "faclity</w>", "cia</w>", "13", "32.", "other", "hip</w>", "tory</w>", "dustry</w>", "36.4%</w>", "$353,000000,</w>", "acl</w>", "ne", "expcted</w>", "inng</w>", "00000,</w>", "ur</w>", "0ptim", "7.5%</w>", "1,0", "contri", "re</w>", "organn", "crestlinee</w>", "durong</w>", "abilities.</w>", "ce</w>", "totael", "enn</w>", "$21</w>", "captial</w>", "business</w>", "platform</w>", "11.7%</w>", "ch</w>", "ion.</w>", "performn", "duc", "93</w>", "23.", "gures</w>", "comm", "amer", "requirements</w>", "infrastructuer</w>", "3.3%</w>", "geopo", "utions</w>", "$2,019</w>", "32.5%,</w>", "a,</w>", "et", "32.9%,</w>", "f0llowing</w>", "par", "loyed</w>", "dyna", "lely</w>", "errs</w>", "id</w>", "lop", "ability,</w>", "semm", "discrep", "enterpirse</w>", "reve", "un1", "ystems</w>", "ergulatory</w>", "eational</w>", "tems</w>", "impact</w>", "8.9%</w>", "si9n", "exx", "weaknesses</w>", "conrributing</w>", "snce</w>", "integrati0n,</w>", "encironment.</w>", "thr0ugh</w>", "fro", "nar", "ucture.</w>", "ail</w>", "chn", "neg1i", "dign</w>", "5.0%</w>", "26.$6%,</w>", "east,</w>", "supp0r", "6.4%</w>", "devices.</w>", "etr", "1atory</w>", "res0lution</w>", "255%</w>", "car", "5ustainability</w>", "9.5%</w>", "players</w>", "technolo9", "operatioanl</w>", "dve", "mana", "chan9es</w>", "next-ge", "whilee</w>", "fic", "infrastructure,</w>", "duri", "patners</w>", "0.7%</w>", "sed.</w>", "$13.9%</w>", "2k.</w>", "ment.</w>", "31.4%</w>", "rxpenditure</w>", "cust0me</w>", "reqiurements</w>", "2020", "fni", "acconuting</w>", "9</w>", "dle</w>", "ectors</w>", "tese</w>", "c0mp", "works</w>", "nusiness</w>", "require", "ider</w>", "20", "lished</w>", "18.2%</w>", "quat", "greew</w>", "gy</w>", "9ro", "$$25", "hnology</w>", "acoc", "alcyon</w>", "-year</w>", "so1utions</w>", "scross</w>", "indu", "publ", "lg", "biomed", "developments.</w>", "del", "ppacific</w>", "poten", "did</w>", "$24</w>", "u5", "26.4%</w>", "enue</w>", "$1.5%</w>", "er", "wr</w>", "aln", "contro1s</w>", "ee</w>", "19</w>", "reporting</w>", "thr0", "89", "lenges</w>", "yaer.</w>", "200,000</w>", "tners</w>", "usl</w>", "ggrowth</w>", "organ", "macroeconomic</w>", "headwinda</w>", "4.5%</w>", "poed</w>", "opt", "ants</w>", "tw", "fr", "incon", "coevrs</w>", "-time</w>", "emp", "rhis</w>", "approv", "if", "crest1in", "opments</w>", "momen", "re", "q", "coo</w>", "thhis</w>", "approvde</w>", "eats</w>", "is</w>", "uments.</w>", "20.2%,</w>", "ch", ",800,000</w>", "79.5%,</w>", "hu", "supp0rt,</w>", "ist</w>", "pri0r</w>", "$202", "prorg", "95.0%,</w>", "rigg", "prrior</w>", "mentss</w>", "taining</w>", "11.3%</w>", "ees</w>", "optimistic</w>", "esses</w>", "increeased</w>", "ects</w>", "ject</w>", "stratgic</w>", "$24", "tively</w>", "enhanc", "ceon", "$358,000,000,</w>", "managmeent</w>", "agreeements</w>", "thh</w>", "ahead", "inclu", "mridian</w>", "xomp", "protfolio</w>", "dcelined</w>", "ci", "prod", "teamms</w>", "trhough</w>", "2020</w>", "oerall</w>", "se</w>", "ation.</w>", "tai", "perrformance</w>", "13.8%</w>", "78.2%,</w>", "mao", "perforance</w>", "compet", "supei", "cautiousy</w>", "bel0w</w>", "6.3%</w>", "retenti0n</w>", "51%</w>", "marily</w>", "79.3%,</w>", "qin</w>", "traction,</w>", "4,000000,</w>", "disruptionss</w>", "comlpiance</w>", "duringg</w>", "plea", "8</w>", "tot", "maojr</w>", "yst</w>", "ximately</w>", "ob</w>", "24.0%</w>", "pressented</w>", "leaders", "engage", "le</w>", "viewin9</w>", "ti", "nuit</w>", "1ier</w>", ",000000,</w>", "projec", "$422,000,000,</w>", "rew</w>", "ti0n,</w>", "approva1", "supp", "custmer</w>", "4.7%</w>", "optimiza", "nwxacore</w>", "tten</w>", "16.6%</w>", "ve1tran</w>", "purchase</w>", "samme</w>", "last</w>", "hibited</w>", "mains</w>", "inni", "tho", "drivem</w>", "18.7%</w>", "20%</w>", "ppursued</w>", "lopments.</w>", "fto", "mentts</w>", "$207,000,000,</w>", "headwn", "ead", "21.9%</w>", "ency</w>", "6.9%</w>", "nsion,</w>", "improve", "macroec0nomic</w>", "d0cu", "ctions.</w>", "15.0%</w>", "itions</w>", "ce", "devel0p", "faciliy</w>", "headwimds</w>", "ful1", "6,000,000</w>", "000000,</w>", "carbon</w>", "ovre</w>", "disup", "ogy</w>", "optimization</w>", "8.1%</w>", "cst</w>", "sppliers.</w>", "7,000,000,</w>", "provideer</w>", "essed.</w>", "qa", "sc0res</w>", "inveset", "internal</w>", "aer", "30.2%</w>", "21.$7%</w>", "maa", "lo0", "deeve", ",100000,</w>", "enti", "entiated</w>", "lw</w>", "marker</w>", "withim</w>", "ation</w>", "provid", "tin9</w>", "auto", "ran9e</w>", "$$46", "attritio</w>", "9eo", "5.6%</w>", "$13,100,000,</w>", "executed</w>", "0m</w>", "infrastructu", "minology</w>", "me", "yed</w>", "$4.7%</w>", "attriti0n</w>", "yh</w>", "acc0un", "mqintaining</w>", "surpassin9</w>", "exap", "34.3%,</w>", "9eopolitical</w>", "31.9%</w>", "ew", "od", "$10", "botth</w>", "quar", "ai-driven</w>", "establish", "$2,023.</w>", "290%</w>", "15.4%</w>", "performa", "gl", "16.5%</w>", "aled</w>", "2.3%</w>", "appr0ximately</w>", ",300,000,</w>", "disrupti0ns</w>", "significat", "15.7%</w>", "22.7%,</w>", "frp", "preli", "rnt</w>", "margun</w>", "actual</w>", "$6,400,000,</w>", "reached</w>", "$2.6%</w>", "15.2%</w>", "75", "support</w>", "ventory</w>", "timates</w>", "so1u", "guaranteed</w>", "si</w>", "unit.s</w>", "contiued</w>", "grad", "revised</w>", "12.6%</w>", "results</w>", "reqi", "srt", "capt", "halcy0n</w>", "82.9%,</w>", "positi", "lo9", "rpoved</w>", "coss</w>", "$393,000,000,</w>", "c0o,</w>", "exp", "or", "struct", "cahnge</w>", "24.", "solidated</w>", "lated</w>", "serivce</w>", "fid", "tip", "kets.</w>", "change</w>", "$47", "chainn</w>", "peiod</w>", "c1oud</w>", "fa", "biomedica1</w>", "ally</w>", "tained</w>", "est", "diven</w>", "c1", ",600,000</w>", "ic", "expects</w>", "reflecing</w>", "fgures</w>", "$3%,</w>", "methodo1ogy.</w>", "witho", "mance</w>", "gl0ssary</w>", "requiremnets</w>", "2022</w>", "lin", "res.</w>", "gloss", "l0oking</w>", "conus", "optimiz", "both</w>", "tio", "iod,</w>", "dyan", "pass", "range</w>", "months</w>", "solar", "9.9%</w>", "bp", "enga9ement</w>", "act", "margib</w>", "11.5%</w>", "guid", "overrall</w>", "icn", "ining</w>", "ax", "inve", "enc", "lat", "$4%</w>", "remai", "000,000,</w>", "s0lu", "79.", "ls.</w>", "miti9ated</w>", "enng", "address", "lw", "2,019.</w>", "yp", "117%</w>", "ffigure</w>", "pcaific</w>", "dirven</w>", "renained</w>", "ausi", "dynam", "fluctuations</w>", "lid", "srong</w>", "impr0ved</w>", "bsiness</w>", "da", "repotr</w>", "suject</w>", "regulq", "mp", "infrastruct", "rrflecting</w>", "a9ed</w>", "htrough</w>", "ran</w>", "cutomer</w>", "publisheed</w>", "92.", "looknig</w>", "coun", "fro</w>", "bodi", "ets.</w>", "sign", "impr0vements</w>", "reportin9.</w>", "mqnagement</w>", "weaknes", "toherwise</w>", "disrputions</w>", "so", "on</w>", "enetrprise</w>", "reflect", "company", "prorgam</w>", "discrepancies</w>", "analyst</w>", "$260,000,000,</w>", "ila</w>", "iti", "red</w>", "1.1%</w>", "expandding</w>", "exxp", "stro", "restated</w>", "posed</w>", "ameri", "ata</w>", "ocmp", "ingg</w>", "judgment</w>", "atl</w>", "witihn</w>", "laly</w>", "officia1</w>", "sttrategy</w>", "ensure</w>", "kn", "32</w>", "wih", "9e", "logis", "in9,</w>", "6%,</w>", "sahre</w>", "inon", "conditio", "potentila</w>", "cont", "eased</w>", "82.4%,</w>", "thes", "performanc", "236%</w>", "peri", "istic</w>", "impr0", "didferentiated</w>", "8000,000,</w>", "27.", "5.7%</w>", "guiadnce</w>", "majoor</w>", "icipates</w>", "souc", "enetr", "2019</w>", "80.3%,</w>", "ser", "year</w>", "5.$7%</w>", "oor", "wuth</w>", "gudiance</w>", "ree</w>", "fonded</w>", "ded", "reivewed</w>", "usb-saharan</w>", "ase</w>", "instruments</w>", "onductor</w>", "2,0", "materially</w>", "logisticss</w>", "amend</w>", "major</w>", "pver</w>", "5.", "20.7%,</w>", "8", "headw", "0f</w>", ",900,000,</w>", "soluti0ns,</w>", "condo", "$2,020</w>", "market</w>", "positive", "ts.</w>", "fined</w>", "4000,000,</w>", "dedd</w>", "155%</w>", "bo", "e5g</w>", "cted</w>", "biomedical</w>", "ptential</w>", "ladnscape</w>", "erflects</w>", "aceo", "21.8%,</w>", "relf", "page</w>", "perio.d</w>", "enterrp", "32.6%,</w>", "head", "differenti", "c0nt", "guaran", "in.</w>", "knesses</w>", "sto", "have</w>", "egration</w>", "methodology.</w>", "innnovative</w>", "following</w>", "egional</w>", "comp1iance</w>", "acquisit", "repurcahse</w>", "$12.0%</w>", "5core</w>", "dfiferentiated</w>", "quatr", "infra", "300,000,</w>", "logsitics</w>", "resemb", "pursuedd</w>", "cod", "been</w>", "ti0ns</w>", "aut0mation</w>", "manaegment</w>", "tran", "ws</w>", "landscap", "framwe", "como", "fonancial</w>", "$12,800,000,</w>", "consum", "idd", "pinnacle</w>", "ran9e.</w>", "acted</w>", "qcross</w>", "51</w>", "deliver", ",400000</w>", "changes</w>", "ir0nveil</w>", "l0g", "82", "while</w>", "ome</w>", "compli", "tipns</w>", "toh", "25.1%</w>", "compliannce</w>", "infrastrucutre</w>", "automation,</w>", "$18</w>", "rm</w>", "headco", "xepansion,</w>", "foll0wing</w>", "idscrepanc", "georg", "de</w>", "found", "rvenue</w>", "mid", "pr0", "tech", "flexibility.</w>", "amt", "201", "14,</w>", "ddynamics</w>", "duing</w>", "distr", "forei9n</w>", "prgram</w>", "regualtory</w>", "socre", "incl", "29.5%</w>", "reserved</w>", "suv", "devel", "esti", "tt", "leadi", "fnancial</w>", "ben", "refll", "dircet", "orss</w>", "provals.</w>", "retd</w>", "eecuted</w>", "engaegment</w>", "agg", "ironveil</w>", "0n</w>", "share</w>", "0", "ez", "comap", "shoul", "translat", "gropu", "scoees.</w>", "lo9ies</w>", "ed</w>", "discipl", "us</w>", "here.</w>", "nductor</w>", "ar</w>", "$34.", "$85.6%,</w>", "engaf", "edd</w>", "full-", "oming</w>", "600,000,</w>", "prog", "sare</w>", "il", "3,5", "311", "with", "gr0up</w>", "witj</w>", "ltain</w>", "appr0ved</w>", "eeflecting</w>", "carb0n</w>", "mnths</w>", "suppot", "developmwnt</w>", "sy", "3.5%</w>", "cintinued</w>", "glo", "orth</w>", "$11", "$7.", "in", "fra", "commitnent</w>", "compar", "supportes</w>", "tu", "dev", "expansion,,</w>", "devek", "1.$3%</w>", "differn", "c0mmunicated</w>", "pub1ication.</w>", "5m,</w>", "$42,500000,</w>", "so1", "ics</w>", "tention</w>", "costs</w>", "integ", "af", "financia1</w>", "78.", "quarter", "89.4%,</w>", "projections,,</w>", "regultory</w>", "un</w>", "drvien</w>", "priya</w>", "ctions</w>", "sur", "operatio", "78.5%,</w>", "nifrastructure</w>", "pleas</w>", "allocqted</w>", "19.5%</w>", "proactviely</w>", "uct</w>", "21.2%,</w>", "22.8%,</w>", "so1ara</w>", "1in", "operatng</w>", "$1.", "through</w>", "capita1s</w>", "acrp", "macroecon0mic</w>", "31", "challlenges</w>", "ensu", "records.</w>", "employe", "uctuations</w>", "u", "manaement</w>", "a9e", "segmetn</w>", "inud", "growt", "entran", "projection", "lyy</w>", "19", "alik</w>", "92.9%,</w>", "uint</w>", "conr", "lar", "te", "93", "4,000,000,</w>", "45", "expendituure</w>", "$12.7%</w>", "nargin</w>", "mr", "sme</w>", "engine", "internak</w>", "rese", "25.0%,</w>", ",2", "ub", "ec0n", "yng</w>", "1ogy</w>", "soth</w>", "organical1y</w>", "iven</w>", "en9ineer", "impr0vement</w>", "bioet", "33.1%</w>", "approv1s</w>", "msr", "85.", "lining</w>", "frameworka</w>", "approvd</w>", "proactive", "ergy</w>", "dri", "20.4%</w>", "ovee</w>", "ms", "figue</w>", "technolo9ies</w>", "icng</w>", "solu", "imp", "104%</w>", "operatin9</w>", "7,000000,</w>", "ect</w>", "grup</w>", "ssubject</w>", "$279,000,000,</w>", "7</w>", "atve</w>", "aisa</w>", "ti0n", "5.0m,</w>", "mrket</w>", "all</w>", "216", "uments</w>", "geop0litical</w>", "j", "asai</w>", "str0n", "ard</w>", "perio</w>", "mat", "software,</w>", "flecting</w>", "ences</w>", "33.", "events</w>", "30.5%,</w>", "fig", "$14,700,000,</w>", "ic</w>", "product", "devic", "men</w>", "aross</w>", "mation,</w>", "dmeand</w>", "surveys</w>", "innovative</w>", "c0re</w>", "ering,</w>", "public", "acrso", "growt</w>", "8.2%</w>", "qc", "25.$5%</w>", "b", "alike.</w>", "adership</w>", "unedr</w>", "capabi", "regu1atory</w>", "ucture", "renewab1e</w>", "play", "rep", "ex", "taive</w>", "cobtinued</w>", "anlaytics</w>", "srton9</w>", "compare", "sses</w>", "c0ers</w>", "headcuont</w>", "c0nfidential</w>", "s0", "moentum</w>", "53</w>", "ahea,", "perid</w>", "eneg", "innov", "ict", "thiis</w>", "eti", "commparative</w>", "$21", "proir</w>", "majo</w>", "68</w>", "yaer", "busineess</w>", "ition</w>", "7.$2%</w>", "figurres</w>", "margni</w>", "1,000,000,</w>", "rremained</w>", "figres</w>", "44%</w>", "commmittee</w>", "ober</w>", "dedicatedd</w>", "inte", "are.</w>", "9.2%</w>", "hra", "tiated</w>", "econ", "thornton</w>", "aive</w>", "whil</w>", "atin</w>", "1eading</w>", "macroeconomiic</w>", "3.4%</w>", "curren", "inc1u", "ra", "nw", "founde", "upcon", "ruptions</w>", "irements</w>", "estima", "$6,100,000,</w>", "unts.</w>", "12.$7%</w>", "eb</w>", "initiative", "con</w>", "o,</w>", "ssytems</w>", "adjustments</w>", "tt</w>", "atrition</w>", "334%,</w>", "throough</w>", "6,000000,</w>", "lgo", "$70", "$17</w>", "colud</w>", "manufacturing</w>", "27%</w>", "oper", "bution</w>", "out", "aisha</w>", ",5", "ausit</w>", "currency</w>", "ern", "17.1%</w>", "strpng</w>", "3.6%</w>", "asion</w>", "for</w>", "tthis</w>", "rp", "writ", "ful1</w>", "gn", "coincident", "econ0mics.</w>", "8.5%</w>", "surve", "consent.</w>", "inc1ude</w>", "scro", "6000,000,</w>", "0nal</w>", "stated</w>", "cent", "individual</w>", "jections,</w>", "en9agement</w>", "f0reign</w>", "$2,022,</w>", "enterrpise</w>", "modest</w>", "chain</w>", "undeer</w>", "remained</w>", "400k,</w>", "tmie</w>", "lopments</w>", "accounnting</w>", "79.9%,</w>", "autom", "50</w>", ".n</w>", "int", "alli", "finab", "eeview", "portf", "tured</w>", "maargin</w>", "oring</w>", "perriod</w>", "howver</w>", "3,000000,</w>", "score", "indusry</w>", "or9anization</w>", "optimizati0n</w>", "250%</w>", "fon", "-6.8%</w>", "positiveely</w>", "requirmeents</w>", "reliab1e</w>", "ptoential</w>", "$91,000,000,</w>", "currecy</w>", "mets</w>", "ecpenditure</w>", "1itical</w>", "$32500,000,</w>", "full</w>", "aff", "93.7%,</w>", "hirign</w>", "performann", "esss</w>", "$78.", "expcts</w>", "sustainab", "periiod.</w>", "ter", "enhanecd</w>", "otherw", "%", "atd</w>", "c</w>", "broaedr</w>", "strp", "cot</w>", "ridian</w>", "engg", "nu", "0th", "structure.</w>", "euroep</w>", "cluod</w>", "thhrough</w>", "s..</w>", "optimustic</w>", "employe</w>", "33", "operati0n", "30.5%</w>", "sug9e", "gorwth</w>", "signif", "ss</w>", "mov", "ific</w>", "ro1s</w>", "due</w>", "peirod.</w>", "publication</w>", "ddata</w>", "c1ar", "srr", "chal", "dical</w>", "clar", "geo9raphies</w>", "11.0%</w>", "chnologies</w>", "markets", "$9,100,000,</w>", "components</w>", "innovatve</w>", "portfolio</w>", "ailke.</w>", "it</w>", "dec1in", "majr</w>", "von", "der</w>", "egration,</w>", "employees</w>", "enre", "ence</w>", "maret</w>", "merid", "ment</w>", "1ronveil</w>", "12.0%</w>", "next</w>", "throuhg</w>", "28.2%</w>", "cybe", "47", "sbject</w>", "c0mpared</w>", "ale</w>", "$0%</w>", "significant</w>", "wb", "annce</w>", "ha", "87.1%,</w>", "hirring</w>", "cosr</w>", "26.9%,</w>", "teh</w>", "chanh", "headwnids</w>", "ofunded</w>", "7000,000,</w>", "quez", "al1y</w>", "reuprchase</w>", "ato", "technologiess</w>", "6.6%</w>", "cmo</w>", "husb", "$311", "21,000,000,</w>", "52%</w>", "cretsline</w>", "infu", "marrkets.</w>", "upoming</w>", "increas", "clarific", "belo", "tu</w>", "mitiag", "ally.</w>", "strt", "outperfrm</w>", "prevoiusly</w>", "year-0ver", "enteeprise</w>", "um</w>", "rights</w>", "$32", "-saharan</w>", "pat", "34</w>", "toins</w>", "onn</w>", "ooutput</w>", "perform</w>", "90.0%,</w>", "termino1ogy</w>", "$85", "85.2%,</w>", "iod.</w>", "si0n.</w>", "faic", "a1ign", "functi0ns.</w>", "20.6%</w>", "vying</w>", "growthh</w>", "ut", "ternal</w>", "t-generation</w>", "se9ment</w>", "kimura</w>", "meir", "engagementt</w>", "ans</w>", "9lossary</w>", "$34", "34", "fprm</w>", "comumnicated</w>", "$201", "mic,</w>", "yl</w>", "0perating</w>", "reman", "tries</w>", "ssion</w>", "empl0", "lines.</w>", "scco", "strategic</w>", "all0cated</w>", "stics</w>", "th</w>", "reliabi1it", "iing</w>", "tome</w>", "tic</w>", "91.9%,</w>", "28,200,000,</w>", "94", "framweorks</w>", "easy</w>", "1%,</w>", "gr0wth</w>", "3.1%</w>", "enet", "matic", "2000k,</w>", "product</w>", "10.6%</w>", "rf0m</w>", "2.8%</w>", "isee</w>", "ained</w>", "900,000,</w>", "ams</w>", "gra", "analytics</w>", "eyar,</w>", "alterntaive</w>", "other</w>", "iin</w>", "audi</w>", "husb.</w>", "4.1%</w>", "iitiatives</w>", "delvi", "regulatorry</w>", "figures.</w>", "9.$1%</w>", "robst</w>", "ar", "regukatory</w>", "ple</w>", "nidustry</w>", "indivi", "agged</w>", "a1ignment.</w>", "alignemnt.</w>", "0c", "unl", "acrosss</w>", "ape</w>", "akike.</w>", "negative</w>", "mission</w>", "ital</w>", "ations</w>", "develpoments</w>", "manu", "based</w>", "tical</w>", "sole", "ec0nomics</w>", "rpe", "ections,</w>", "fi9ure", "1.9%</w>", "infar", "totaled</w>", "tive</w>", "ical1y</w>", "egr", "arive</w>", "n</w>", "erser", "previously</w>", "wr", ",0</w>", "tal</w>", "reopr", "92", "20.1%,</w>", "ec", "how</w>", "nsumer</w>", "raes</w>", "89.4%</w>", "guidannce</w>", "financual</w>", "nue</w>", "manufacturin9</w>", "cap", "disciplin", "mmarkets.</w>", "81.7%,</w>", "atives</w>", "scores,</w>", "veltan</w>", "en", "91", "27.7%,</w>", "66</w>", "markett</w>", "challen9es</w>", "q4</w>", "$66", "19.7%</w>", "33.5%</w>", "positvely</w>", "tfolio</w>", "headcount</w>", "market", "ena</w>", "istics</w>", "reupr", "stries</w>", "latn</w>", "dec1ining</w>", "en,</w>", "87.7%,</w>", "acros</w>", "e1ectronics.</w>", "cpsts</w>", "disrup", "21.1%,</w>", "$483,000,000,</w>", "tram</w>", "ay", "are", "cautious", "5upply</w>", "makret</w>", "1lenges</w>", "spply</w>", "$14.5%</w>", "pe", "stronh</w>", "sp", "12.$4%</w>", "cfo</w>", "lead", "increase</w>", "witi", "approvals.</w>", "rema", "expec", "ocnt", "sales</w>", "sourcingg</w>", "uth</w>", "rep0rting</w>", "mvo", "tinued</w>", "$9%,</w>", "improveements</w>", "signi", "ied</w>", "energyy</w>", "31.2%</w>", "whne</w>", "period</w>", ",300,000</w>", "$65</w>", "rig", "acoss</w>", "use</w>", "mew", "ha1cyon</w>", "infrastructurw</w>", "estimaes</w>", ",200,000,</w>", "requiremetns</w>", "suggested</w>", "94.6%,</w>", "ocmpanys</w>", "the</w>", "suc", "unkess</w>", "ugidance</w>", "ial</w>", "engagem", "ility,</w>", "livery</w>", "atin9</w>", "remain</w>", "chhain</w>", "devel0pments</w>", "alin", "61</w>", "informati0n</w>", "guidabce</w>", "msrgin</w>", "ga", "hed</w>", "pu", "2021,</w>", "ys</w>", "acquisi", "ne</w>", "ion,</w>", "pca", "commuinc", "oover</w>", "aki", "expansi0n", "tition</w>", "dme", "$56", "ear", "surpassing</w>", "tovely</w>", "$252,000,000,</w>", "figurse</w>", "system</w>", "figires</w>", "cnotinued</w>", "grow", "benchmar", "0ptimization</w>", "flects</w>", "ey", "ke", "broad", "geopol", "ana1y", "ocn", ",0", "80.7%,</w>", "bs.</w>", "233%</w>", "$9,500,000,</w>", "fac", "lp", "ys.</w>", "22%</w>", "tra", "estimate</w>", "fom", "geopolitica1</w>", "provements</w>", "reven", "ara</w>", "headcon", "ist", "centerd</w>", "co", "ssme</w>", "discip1", "sok", "or</w>", "newable</w>", "software.</w>", "67</w>", "renew", "framewor", "landscape</w>", "employee</w>", "penditure</w>", "sokutions</w>", "movements</w>", "5upp1y</w>", "thr", "velt", "aaudit</w>", "suubject</w>", "ik", "14.$7%</w>", "pe</w>", "yera</w>", "anti", "rmea", "approvals</w>", "172%</w>", "integrattion,</w>", "presented</w>", "capabilities</w>", "suvre", "chai</w>", "indus", "$2,019.</w>", "8,000,000,</w>", "expenidture</w>", "chlalenges</w>", "yeams</w>", "figure</w>", "amen", "platfomr</w>", "headwnds</w>", "foun", "expenditure</w>", "sucec", "ec0nom", "88.", "$6.2%</w>", "syst", "requ", "supply</w>", "capita1</w>", "employ", "durin</w>", "7.4%</w>", "emnt</w>", "onents</w>", "t-", "78.4%,</w>", "remaiined</w>", "18.1%</w>", "ties.</w>", "solutions.</w>", "rly</w>", "uo", "semmiconductor</w>", "venue</w>", "sccores.</w>", "ies</w>", "ure", "flu", "disci", "upgra", "appr0v", "ile</w>", "preliminary,</w>", "instruments.</w>", "$2,0", "25.$1%</w>", "f1uctuations</w>", "accountiing</w>", "expennditure</w>", "$114,000,000,</w>", "regulqtory</w>", "presn", "intended</w>", "expansi0n,</w>", "overall", "technoko", "1%</w>", "chalelnges</w>", "consent</w>", "operationall</w>", "materia1ly</w>", "tio</w>", "0r</w>", "expanding</w>", "iternal</w>", "pursued</w>", "urces</w>", "$95.", "inpact</w>", "their</w>", "23.1%</w>", "techonlogy</w>", "uld</w>", "lait", "0.8%</w>", "inf", "14.9%</w>", "continud</w>", "enration</w>", "individua1</w>", "mraket</w>", "by</w>", "incldue</w>", "suppliers.</w>", "clarifications</w>", "periodd,</w>", "othh", "gi", "$25,600,000,</w>", "capabi1ities</w>", "iton.</w>", "cha1lenges</w>", "segment</w>", "3,000,000</w>", "tum</w>", "37.3%</w>", "23.7%</w>", "analsyt</w>", "without</w>", "$29.", "dynamicss</w>", "pose</w>", "developmentts</w>", "interpreting</w>", "en9ineering</w>", "initiatievs.</w>", "improvements</w>", "ited</w>", "r0bust</w>", "11", "$221", "segnent</w>", "devle", "reserv", "ditions</w>", "whhile</w>", "contined</w>", "mana9ement</w>", "30.7%,</w>", "regulator", "aib", "85.3%,</w>", "2021.</w>", "yion</w>", "bely</w>", "sustainability</w>", "customet</w>", "lam", "nexacore</w>", "$31,800,000,</w>", "initiatiev", "p1atform</w>", "margin.</w>", "ron", "26.6%</w>", "ings</w>", "maintaaining</w>", ",,</w>", "outperfor", "ref", "individu", "$11.4%</w>", "inter", "oerational</w>", "amercia</w>", "ess</w>", "suppl</w>", "be1o", "rter</w>", "integr", "$29", "headcoun", "24.1%,</w>", "..</w>", "94.5%,</w>", "commuincated</w>", "optmistic</w>", "compraed</w>", "afri", "with</w>", "ula</w>", "171%</w>", "6.", "sion</w>", "whie</w>", "imately</w>", "83.0%,</w>", "challengees</w>", "however</w>", "7.0%</w>", "<sep>", "mens</w>", "env", "ences.</w>", "enterprisr</w>", ",40", "328%,</w>", "includde</w>", "ant</w>", "sofware</w>", "9000,000,</w>", "upco", "quto", "arch</w>", "22</w>", "crestlinr</w>", "beli", "framworks</w>", "landsc", "accounting</w>", "dduring</w>", "marrket</w>", "li", "100,000,</w>", "gre", "n0te</w>", "delver</w>", "maintan", "24.6%</w>", "crets", ",100,000,</w>", "$5.0%</w>", "7.1%</w>", "supp1iers</w>", "a", "ain</w>", "ons</w>", "$81.5%,</w>", "ili", "t0ta1</w>", "dfi", "rvice</w>", "regul", "5aharan</w>", "erially</w>", "oeriod</w>", "engin", "pact</w>", "rsecurity</w>", "produc", "duirng</w>", "initi", "satisfac", ",100,000</w>", "1ined</w>", "ro</w>", "provdiers</w>", "$127,000,000,</w>", "economic</w>", "gguidance</w>", "cc", "ffinancial</w>", "operationnal</w>", "finamcial</w>", "cing</w>", "ap", "ocmmitment</w>", "25.5%,</w>", "usb", "per", "i</w>", "creased</w>", "nor", "porrtfolio</w>", "intrenal</w>", "indust", "pur", "gnificant</w>", "ful", "si", "00000</w>", "marcsu", "asi", "prted</w>", "27.3%</w>", "acc0unt</w>", "technolog", "intii", "leadersh", "reserved.</w>", "$413,000,000,</w>", "44", "belpw</w>", "sub-", "marcsu</w>", "information</w>", "gl0bally</w>", "reported</w>", "t,</w>", "stratge", "clo", "enh", "e", "$485,000,000,</w>", "-13.2%</w>", "34.", "wen</w>", "engafed</w>", "comp", "p0sitive1y</w>", "proactively</w>", "repurch", "currn", "coninued</w>", "a1ternative</w>", "udring</w>", "$295", "operati0nal</w>", "intorduced</w>", "res", "accounti", "$434,000,000,</w>", "contro", "26.1%</w>", "withh</w>", "approxiam", "positive1y</w>", "0fficial</w>", "$14", "suggsted</w>", "reoprted</w>", "figur", "chanf", "ren", "uting</w>", "89.0%,</w>", "ati0n", "significatn</w>", ",80", "ddevices</w>", "new</w>", "measurred</w>", "temained</w>", "leadershhip</w>", "$44,600,000,</w>", "pro9ram</w>", "cur", "se.</w>", "quarter1y</w>", "accuonting</w>", "glob", "meployee</w>", "devlopment</w>", "agreemnets</w>", "guarante", "yar</w>", "meridi", "ary,</w>", "contineud</w>", "las", "conusmer</w>", ",28", "ok", "vie", "afr", "ultiple</w>", "per0d</w>", "e,</w>", "19.3%</w>", "mqn", "range.</w>", "15.8%</w>", "tibuting</w>", "mmarket</w>", "unti</w>", "stated.</w>", "significan", "reveneu</w>", "repported</w>", "figr", "subj", "decined</w>", "124%</w>", "ere</w>", "s", "fol", "boar", "$13", "uear.</w>", "flexibility", "csots</w>", "pricung</w>", "itve</w>", "ewable</w>", "nal</w>", "fied</w>", "74</w>", "capabi1ities.</w>", "56</w>", "negli", "ferentiated</w>", "econ0mic</w>", "figuress</w>", "0ss</w>", "58</w>", "85.4%</w>", "ustry</w>", "cost</w>", "knes", "ating</w>", "reproduc", "yure</w>", "5,000,000</w>", "inc0n", "crestline</w>", "$23,000,000,</w>", "erica</w>", "lands", "posit", "fri", "xom", "tarrget</w>", "orbis</w>", "bene</w>", "execut", "24", "commun", "sly</w>", "enn", "sust", "l", "thorugh</w>", "uunits.</w>", "margn</w>", "sub", "managwment</w>", "develp", "primarilly</w>", "currencies</w>", "adscape</w>", "maket</w>", "0,</w>", "enegy</w>", "competiri", "region", "clou", "indistr", "r.</w>", "broaderr</w>", "21", "commit", "81.1%,</w>", "faci1ity</w>", "$406,000,000,</w>", "frq", "c0mparative</w>", "regionla</w>", "gated</w>", "outpe", "reflceting</w>", "identifeid</w>", "be</w>", "cony", "9.</w>", "empl0yee</w>", "developnents</w>", "vasquez</w>", "chlal", "$2", "rs.</w>", "operai", "approximate1y</w>", "cacounting</w>", "managemet</w>", "peri0d,</w>", "ly</w>", "contribut", "reser", "28.8%</w>", "kast</w>", "settings</w>", "81", "commp", "grw</w>", "frqmeworks</w>", "durig</w>", "ae", "initiatives</w>", "sh0uld</w>", "chin</w>", "7.7%</w>", "$426,000,000,</w>", "otpimization.</w>", "imrpoved</w>", "meth0dology</w>", "metns</w>", "ers.</w>", "thsee</w>", "daya</w>", "conditi0ns</w>", "niternal</w>", "rr", "%%</w>", "cpm", "aheadd,</w>", "appeoved</w>", "vomp", "ilities.</w>", "gan</w>", "expendit", "tcehnology</w>", "0ptimization.</w>", "positivey</w>", "meb", "enterp", "please</w>", "tional</w>", "suring</w>", "4", "veris", "note</w>", "publicati0n.</w>", "orks</w>", "q1</w>", "10.2%</w>", "el", "exib", "ign</w>", "alike</w>", "ces</w>", "software</w>", "supo", "xo", "tions.</w>", "biot", "bsu", "vals.</w>", "wwith</w>", "excahnge</w>", "ear.</w>", "indistry</w>", "prev", "$40", "operational</w>", "conversi", "idnu", "eir</w>", "rees", "environ", "fax", "$241,000,000,</w>", "$111,000,000,</w>", "logy</w>", "future</w>", "29.5%,</w>", "9rew</w>", "ust</w>", "compny</w>", "competit", "jub", "$418", "aining</w>", "servuce</w>", "syr", "erporting.</w>", "cre", "2k</w>", "appr", "om", "baord</w>", "ameriac</w>", "frrom</w>", "lara</w>", "robuts</w>", "gua", "hea", "syystems</w>", "40</w>", "judg", "anticpates</w>", "ions</w>", "$479,000,000,</w>", "tiously</w>", "sa1es</w>", "disciplined</w>", "refle", "peeiod</w>", "headcont</w>", "stron</w>", "look", "solely</w>", "aed</w>", "h0we", "addressab1e</w>", "91.5%,</w>", "reli", "incra", "sion.</w>", "ev</w>", "eexpansion,</w>", "suppky</w>", "ofrm</w>", "acrpss</w>", "b</w>", "dur", "sstems</w>", "expedniture</w>", "rtention</w>", "chanhes</w>", "infrastucture</w>", "icated</w>", "meent</w>", "$20</w>", "opwr", "13.4%</w>", "dynanic,</w>", "tage", "regulatoty</w>", "ag9ressive</w>", "npted.</w>", "remainde</w>", "opeartional</w>", "$11,400,000,</w>", "nxt-generation</w>", "chaleln", "vi", "sugge", "riven</w>", "idian</w>", "antic", "na", "geopoli", "ottaled</w>", "90", "rast</w>", "$238%</w>", "novative</w>", "committ", "$366,000,000,</w>", "enterpir", "dyanmics</w>", "europe</w>", "fianncial</w>", "compan", "enges</w>", "00%</w>", "tipn,</w>", "industrial</w>", "$44", "ti0", "hts</w>", "nex-t", "$50", "ernal</w>", "tea", "segm", "obris</w>", "wwhile</w>", "med", "ods</w>", "pso", "generated</w>", "innivative</w>", "ics.</w>", "enter", "elect", "readers</w>", "strno", "enterpris", "esg</w>", "1.0%</w>", "approvedd</w>", "invw", "85.8%,</w>", "note", "reevenue</w>", "5ub-saharan</w>", "rightss</w>", "ation,</w>", "enterprrise</w>", "on1y.</w>", "96.0%,</w>", "mennts</w>", "roy</w>", "pojections,</w>", "saharan</w>", "headwinsd</w>", "ebsure</w>", "attr", "anding</w>", "$7%,</w>", "obri", "preseb", ",46", "emp1oyee</w>", "conditions.</w>", "dw", "disruptions</w>", "prevo", "gh</w>", "egment</w>", "ao", "tics</w>", "repot", "2,019</w>", "reseer", "staff</w>", "audti", "ud</w>", "an</w>", "90.", "cts</w>", "midd", "furing</w>", "pricimg</w>", "pres", "acroo", "lo", "foundd</w>", "2", "$16", "pote", "upx", "finacnial</w>", "oms</w>", "86", ",</w>", "$12", "peripd</w>", "latory</w>", "prov", "10.5%</w>", "remainned</w>", "bi", "position.</w>", "matically.</w>", "feo", "mnt</w>", "pr0actively</w>", "othher</w>", "gudance</w>", "sion,</w>", "potnetial</w>", "prformance</w>", "screen</w>", "declined</w>", "strateg", "datq</w>", ",800,000,</w>", "provoder</w>", "cn", "methodolog", "20.8%</w>", "85", "uq", "au", "sof", "reportin9</w>", "27.9%,</w>", "$297%</w>", "upgrad", "reginal</w>", "2%,</w>", "oev", "ne9", "30.9%</w>", "europe", "acquisiti0n</w>", "seriv", "ana1ytics</w>", "stencies</w>", "challen", "inxreased</w>", "attrtiion</w>", "resolutoin</w>", "itive</w>", "0nditions</w>", "$461,000,000,</w>", "poli", "nan", "10.7%</w>", "dedoc", "put</w>", "i", "ers</w>", "solara</w>", "tar9et</w>", "rics</w>", "iroonveil</w>", "und", "settings.</w>", "expanso", "$449,000,000,</w>", "8,000000,</w>", "macr0economic</w>", "29.1%,</w>", "halcyno</w>", "initia", "score</w>", "roduced</w>", "esn", "accuon", "owing</w>", "etams</w>", "eln", "unit</w>", "rec0r", "devw", "published</w>", "mult", "tracti", "total</w>", "0,000,000</w>", "covers</w>", "whike</w>", "22.4%,</w>", "boardd</w>", "ents.</w>", "ressi", "sub-sah", "18.9%</w>", "erserved.</w>", "$409,000,000,</w>", "twh</w>", "these</w>", "rfom</w>", "next-9eneration</w>", "suppro", "as", "csot</w>", "yea</w>", "geeographies</w>", "32", "stor", "ier</w>", "rflect</w>", "atio</w>", "42</w>", "ut</w>", "provide</w>", "outsi", "patel</w>", "monyh", "strateg</w>", "por", "remaibs</w>", "de1i", "dellivery</w>", "cust", "fuctuations</w>", "superor</w>", "urr", "epan", "flucuations</w>", "cso", "n0ted.</w>", "ems</w>", "requir", "supplierss.</w>", "inernal</w>", "cmo,</w>", "deliery</w>", "10.1%</w>", "suppoor", "shared</w>", "24</w>", "5egment</w>", "interna1</w>", "incre", "ware</w>", "oevr</w>", "ffigures</w>", "adn", "period", "$6.6%</w>", "sol", "$26.", "65</w>", "currenc", "27.2%</w>", "comumn", "rdiven</w>", "um", "acrss</w>", "mangement</w>", "wea", "leadershi", "cs</w>", "ge0", "provide", "ide", "bbiotech</w>", "raates</w>", "regioonal</w>", "metn", "chan", "ana1yst</w>", "easst</w>", "lopment</w>", "segmentt</w>", "auditt</w>", "200k,</w>", "rket</w>", "92.4%,</w>", "overa1l</w>", "vider</w>", "maangement</w>", "fidential</w>", "wnt</w>", "invent", "msn", "000", "maoj", "29.0%,</w>", "33.8%</w>", "teh", "inc", "mu1tiple</w>", "operatinal</w>", "initiativ", "potenti", "whi", "27.$9%,</w>", "ader</w>", "neext</w>", "opr", "eastt</w>", "perf0r", "strate9y</w>", "iver</w>", "$81.", "e1", "hn</w>", "semic0nductor</w>", "$$38", "eterprise</w>", "d0cument</w>", "1y</w>", "monitorin9</w>", "yer</w>", "fron</w>", "financil</w>", "1ished</w>", "ocated</w>", "eri", "progr", "stments</w>", "63</w>", "disrutp", "aco", ",87", "jor</w>", "2,000000,</w>", "sr", "throu9h</w>", "optin", "p0sition</w>", "fu1", "mates</w>", "$420,000,000,</w>", "organcally</w>", "refllect</w>", "inteen", "br0", "ovrr</w>", "neen</w>", "24.9%,</w>", "bust</w>", "l</w>", "mitig", "cresl", "64%</w>", "vic", "previous", "improvem", "yea", "organicallyy</w>", "mra", "2019.</w>", "c0mpanys</w>", "ustomer</w>", "shated</w>", "greww</w>", "deliver</w>", "cover</w>", "inds</w>", "16.4%</w>", "obtained</w>", "hile</w>", "ased</w>", "sition.</w>", "4.9%</w>", "0,000000,</w>", "rior</w>", "dynan", "222</w>", "ead,</w>", "analy", "boaed</w>", "mjor</w>", "here", "ds.</w>", "wit", "gudi", "headocunt</w>", "anced</w>", "nent.</w>", "nex-tgeneration</w>", "86.9%,</w>", "5,000,000,</w>", "cs.</w>", "ceo,</w>", "geeo", "introdu", "undustry</w>", "ange</w>", "totall</w>", "regulato", "mis", "ecting</w>", "ec0nomics.</w>", "reflectimg</w>", "identifei", "ed", "with0ut</w>", "sc", "h0w</w>", "advised</w>", "economics.</w>", "asia,</w>", "ecpn", "renewable</w>", "here</w>", "inn</w>", "overak", "85.4%,</w>", "upgrades,</w>", "$", "contributing</w>", "deve", "overalll</w>", "thor", "$323,000,000,</w>", "monyhs</w>", "strong", "r", "ta", "compna", "alginment.</w>", "customer</w>", "age</w>", "rob", "waknesses</w>", "platforrm</w>", "dyn", "continued</w>", "ins.</w>", "3.9%</w>", "managem", "ategy</w>", "f", "veys,</w>", "broa", "bal</w>", "reginoal</w>", "method0", "range", "79.6%,</w>", "conver", "sla", "1.", "miti9", "employeee</w>", "frastructure</w>", "some</w>", "ner</w>", "proud", "stategy</w>", "$16.", "a</w>", "enterprse</w>", "subject</w>", "mate", "jec", "support,</w>", "ation", "approvlas.</w>", "00k</w>", "full-time</w>", "ibg</w>", "compara", "najor</w>", "p1", "ocntrols</w>", "eev", "ional</w>", "rc", "financ", "veltran</w>", "nair,</w>", "5ust", "27.2%,</w>", "markey</w>", "13.3%</w>", "enx", "pro", "43</w>", "dynamic,</w>", "faci", "repurchhase</w>", "durinf</w>", "13.6%</w>", "robus</w>", "manuf", "ery</w>", "62</w>", "res0lu", "distribu", "foreign</w>", "metho", "nge</w>", "asii", "commu", "uchase</w>", "integra", "contib", "infrastructure.</w>", "logies</w>", "pub", "growh</w>", "72</w>", "produc</w>", "gin</w>", "automatic", "bis</w>", "unlless</w>", "perioods</w>", "21.6%</w>", "urrency</w>", "uless</w>", "envir0n", "tibe</w>", "700k,</w>", "31.8%</w>", "chan9e</w>", "expect", "xpenditure</w>", "$23</w>", "yera,</w>", "aphi", "uctu", "magrin</w>", "lo9isticss</w>", "acquis", "nit", "dian</w>", "apr", "geographise</w>", "repurcha", "fgiures</w>", "identif", "lo9istics</w>", "9.0%</w>", "grww</w>", "c0n", "loc", "autoo", "33.9%</w>", "ref1ecting</w>", "esence</w>", "positiev", "ctu", "caiptal</w>", ",500,000</w>", "$6", "fe", "ermain</w>", "18.6%</w>", "ge0political</w>", "nnext</w>", "prio</w>", "m0", "on,</w>", "broader</w>", "ccost</w>", "ry</w>", "cautio", "$26,800,000,</w>", "c0mmitment</w>", "16.2%</w>", "clined</w>", "hl", "devel0", "rall</w>", "90.4%,</w>", "marcus</w>", "organicakly</w>", "26.3%,</w>", "nexaore</w>", "faiclity</w>", "21</w>", "ted.</w>", "eneration</w>", "aggressiv", "6.8%</w>", "reflw", "opitmistic</w>", "reflecting</w>", "thr0u9h</w>", "guidane</w>", "rest", "score,s</w>", "moter</w>", "tii", "$193,000,000,</w>", "a9", "ies.</w>", "soluti0ns.</w>", "emissions</w>", "eect</w>", "emission", "crest1ine</w>", "grw", "sia</w>", "fol1", "8.4%</w>", "sa1es,</w>", "financial</w>", "refer", "gui", "3,6", "year,,</w>", "support", "growht</w>", "measu", "quarter</w>", "maerica</w>", "dra", "negligible</w>", "lish", "previous1y</w>", "inndustry</w>", "ere", "incul", "nai", "enhanced</w>", "dedocated</w>", "8iotech</w>", "engagemennt</w>", "dr", "invet", ",700,000</w>", "automa", "poses.</w>", "mannagement</w>", "a1l</w>", "7.", "96.", "emts</w>", "$26</w>", "capab", "capabilities.</w>", "enrgy</w>", "finnancial</w>", "ma", "lamdscape</w>", "positio", "margn", "$3.4%</w>", "trh", "day", "84.4%,</w>", "ail", "ded</w>", "33.3%,</w>", "geograph", "porting</w>", "ali9nment.</w>", "ocmpliance</w>", "ironve", "5ome</w>", "oerating</w>", "enerrgy</w>", "pinnac", "infarstructure</w>", "over</w>", "acial</w>", "90.2%,</w>", "ura,</w>", "cl0ud</w>", "aggre", ",700000,</w>", "4.", "ter</w>", "reporr", "17.2%</w>", "compant</w>", "declni", "attrition</w>", "$16,600,000,</w>", "sub-saharan</w>", "regulat", "hc", "oer</w>", "uunder</w>", ",58", "signiicant</w>", "enyerprise</w>", "cmop", "32.0%,</w>", "0.9%</w>", "expensiture</w>", "bofies</w>", "ity</w>", "mann", "apprvo", "signficant</w>", "44</w>", "18.$1%</w>", "from</w>", "wthin</w>", "leadnig</w>", "ented</w>", "elena</w>", "24.7%</w>", "ian</w>", "markets.</w>", "6.7%</w>", "$2,021</w>", "uc", "velttran</w>", "8.6%</w>", "f0r,</w>", "tiatives</w>", "25.2%</w>", "ha</w>", "283%</w>", "34.0%,</w>", "intgeration</w>", "report", "str0ng</w>", "aly", "tioon</w>", "lat0ry</w>", "g</w>", "comparrd</w>", "2.</w>", "ele", "sam", ",400,000</w>", "providr</w>", "csu", "a1</w>", ",3", "tar9e", "pero", "9lo", "framew0rks</w>", "disrupt", "200,000,</w>", "t0taled</w>", "f1exibility.</w>", "ture</w>", "peroid", "retention</w>", "presentd</w>", "71</w>", "sudit</w>", "cant</w>", "semiconductor</w>", "perido</w>", "lities.</w>", "fpr", "139%</w>", "f0rm</w>", "declinin9</w>", "30.", "1ron", "throgh</w>", "rat", "la</w>", "over", "functions.</w>", "$$28", "hub", "20.8%,</w>", "next-geenration</w>", "settin9", "esure</w>", "tiv", "beeen</w>", "cfo,</w>", "mq", "erpurchase</w>", "ers", "improovements</w>", "prom0ter</w>", "peruod</w>", "y,</w>", "reguulatory</w>", "2022.</w>", "mic</w>", "wit</w>", "perod</w>", "udner</w>", "haed", "growh", "vost</w>", "headwinds</w>", "ticipates</w>", "developmennts</w>", "proviiders</w>", "liple</w>", "tion", "p1at", "monitoring</w>", "meridiann</w>", "lly</w>", "timg</w>", "resolution</w>", "ovver</w>", "eenhanced</w>", "c0", "continied</w>", "27</w>", "dyring</w>", "direct0rs</w>", "t</w>", "expqn", "automatio</w>", "porr", "operationa1</w>", "htese</w>", "missi0n</w>", "remqined</w>", "formatting</w>", "cautiously</w>", "14.", "57%</w>", "a1located</w>", "portfo1io</w>", "reliab", "mansgement</w>", "202", "unded</w>", "83", "f0", "capabi1iti", "produt</w>", "cuustomer</w>", "9gested</w>", "ahead</w>", "cions.</w>", "14.7%</w>", "egn", "38</w>", "28.0%</w>", "$201,000,000,</w>", "9y</w>", "upgr", "ices</w>", "201.</w>", "outperf0rm</w>", "produ", "h0", "stra", "ece</w>", "noorth</w>", "$15,200,000,</w>", "20</w>", "arantee</w>"], "merges": [["i", "n"], ["s", "</w>"], ["e", "</w>"], ["d", "</w>"], ["e", "r"], ["e", "n"], ["o", "n"], ["a", "n"], ["t", "i"], ["r", "e"], ["t", "h"], ["t", "</w>"], ["e", "d</w>"], ["o", "r"], ["a", "l"], ["y", "</w>"], ["r", "o"], [".", "</w>"], ["s", "t"], ["g", "</w>"], ["a", "r"], ["a", "t"], ["in", "g</w>"], ["th", "e</w>"], ["m", "en"], [",", "</w>"], ["ti", "on"], ["t", "o"], ["c", "o"], ["in", "</w>"], ["i", "c"], ["e", "c"], ["al", "</w>"], ["u", "r"], ["er", "</w>"], ["to", "</w>"], ["an", "d</w>"], ["a", "c"], ["l", "i"], ["p", "er"], ["l", "o"], ["s", ".</w>"], ["or", "</w>"], ["e", "s</w>"], ["st", "r"], ["t", "s</w>"], ["e", "x"], ["s", "u"], ["i", "s"], ["p", "ro"], ["th", "</w>"], ["u", "n"], ["a", "</w>"], ["co", "m"], ["o", "f"], ["v", "e"], ["m", "a"], ["s", "i"], ["men", "t</w>"], ["e", "a"], ["of", "</w>"], ["w", "i"], ["c", "on"], ["l", "y</w>"], ["i", "t"], ["e", "s"], ["i", "o"], ["g", "e"], ["an", "c"], ["k", "e"], ["m", "ar"], ["f", "or</w>"], ["a", "p"], ["h", "a"], ["d", "e"], ["com", "p"], ["a", "tion"], ["m", "</w>"], ["0", "0"], ["men", "ts</w>"], ["r", "i"], ["d", "u"], ["l", "</w>"], ["en", "t"], ["wi", "th</w>"], ["at", "ed</w>"], ["d", "i"], ["p", "or"], ["g", "u"], ["o", "m"], ["ex", "p"], ["per", "io"], ["u", "s"], ["e", "ar"], ["t", "ing</w>"], ["l", "e</w>"], ["ur", "e</w>"], ["r", "a"], ["n", "o"], ["ti", "v"], ["ea", "d"], ["a", "b"], ["in", "ed</w>"], ["e", "g"], ["i", "s</w>"], ["re", "s"], ["f", "l"], ["con", "t"], ["u", "st"], ["c", "t"], ["ti", "c"], ["p", "o"], ["o", "per"], ["h", "i"], ["al", "l</w>"], ["tion", "</w>"], ["m", "an"], ["u", "p"], ["in", "t"], ["s", "o"], ["re", "ma"], ["a", "ge"], ["c", "h"], ["ac", "ro"], ["l", "at"], ["w", "</w>"], ["age", "ment</w>"], ["mar", "ke"], ["y", "ear"], ["a", "tiv"], ["on", "</w>"], ["i", "d"], ["s", "s</w>"], ["en", "</w>"], ["i", "al</w>"], ["c", "ust"], ["e", "m"], ["i", "li"], ["v", "er</w>"], ["om", "er</w>"], ["anc", "e</w>"], ["ha", "s</w>"], ["lo", "g"], ["cust", "omer</w>"], ["%", "</w>"], ["c", "ap"], ["a", "m"], ["por", "t"], ["ur", "ing</w>"], ["2", "0"], ["er", "s</w>"], ["pro", "v"], ["p", "r"], ["su", "p"], ["men", "t"], ["es", "s</w>"], ["or", "y</w>"], ["en", "g"], ["h", "ead"], ["re", "v"], ["q", "u"], ["a", "u"], ["acro", "ss</w>"], ["f", "or"], ["u", "ct"], ["f", "ra"], ["h", "</w>"], ["man", "agement</w>"], ["u", "ed</w>"], ["is", "e</w>"], ["tion", "s</w>"], ["in", "ued</w>"], ["ar", "e</w>"], ["in", "du"], ["s", "t</w>"], ["re", "fl"], ["indu", "str"], ["at", "es</w>"], ["refl", "ec"], ["i", "m"], ["s", "h"], ["ti", "m"], ["cont", "inued</w>"], ["f", "i"], ["ent", "er"], ["b", "y</w>"], ["f", "in"], ["d", "uring</w>"], ["o", "u"], ["ili", "t"], ["perio", "d"], ["co", "un"], ["en", "c"], ["r", "an"], ["g", "ro"], ["f", "ro"], ["fro", "m</w>"], ["fin", "anc"], ["a", "g"], ["ativ", "e</w>"], ["f", "o"], ["financ", "ial</w>"], ["ke", "y</w>"], ["t", "ec"], ["a", "s</w>"], ["g", "n"], ["n", "ex"], ["de", "ve"], ["perio", "d</w>"], ["str", "at"], ["b", "o"], ["rema", "ined</w>"], ["re", "gu"], ["c", "re"], ["str", "on"], ["lo", "p"], ["o", "ver</w>"], ["l", "u"], ["00", "0"], ["en", "er"], ["p", "ri"], ["en", "ti"], ["deve", "lop"], ["m", "e"], ["v", "er"], ["lat", "ory</w>"], ["ation", "al</w>"], ["a", "d"], ["stron", "g</w>"], ["i", "ti"], ["in", "fra"], ["str", "uct"], ["s", "ed</w>"], ["er", "n"], ["oper", "ational</w>"], ["ic", "</w>"], ["infra", "struct"], ["du", "c"], ["regu", "latory</w>"], ["w", "as</w>"], ["s", ",</w>"], ["n", "e"], ["is", "tic"], ["r", "on"], ["marke", "t</w>"], ["ar", "t"], ["an", "</w>"], ["e", "s.</w>"], [",", "000"], ["b", "us"], ["pr", "ise</w>"], ["en", "d"], ["com", "m"], ["fi", "gu"], ["g", "h</w>"], ["b", "e"], ["w", "th</w>"], ["s", "eg"], ["enter", "prise</w>"], ["ro", "u"], ["figu", "re"], ["re", "por"], ["infrastruct", "ure</w>"], ["ur", "c"], ["p", "l"], ["th", "is</w>"], ["ac", "coun"], ["th", "rou"], ["j", "ec"], ["at", "ing</w>"], ["f", "ac"], ["o", "p"], ["m", "o"], ["throu", "gh</w>"], ["b", "e</w>"], ["t", "ed</w>"], ["i", "f"], ["to", "t"], ["oper", "ating</w>"], ["comp", "an"], ["gro", "wth</w>"], ["year", "</w>"], ["v", "en</w>"], ["re", "d</w>"], ["exp", "ec"], ["d", "ri"], ["d", "is"], ["exp", "an"], ["p", "res"], ["d", "o"], ["ti", "ve"], ["dri", "ven</w>"], ["v", "ic"], ["op", "tim"], ["1", "</w>"], ["tec", "h"], ["d", "s</w>"], ["u", "b"], ["per", "for"], ["po", "si"], ["y", ".</w>"], ["reflec", "ting</w>"], ["y", "n"], ["ne", "w</w>"], ["sup", "p"], ["l", "in"], ["w", "in"], ["cap", "it"], ["d", "yn"], ["figure", "s</w>"], ["20", "2"], ["end", "it"], ["ic", "ated</w>"], ["dyn", "am"], ["w", "hi"], ["head", "win"], ["m", "on"], ["un", "d"], ["endit", "ure</w>"], ["o", "th"], ["g", "ra"], ["al", "i"], ["l", "ead"], ["de", "li"], ["headwin", "ds</w>"], ["industr", "y</w>"], ["u", "e</w>"], ["us", "ly</w>"], ["li", "ance</w>"], ["ec", "on"], ["exp", "enditure</w>"], ["su", "b"], ["prov", "id"], ["en", "ue</w>"], ["strat", "eg"], ["ap", "prov"], ["f", "f"], ["tive", "ly</w>"], ["i", "es</w>"], ["whi", "le</w>"], ["lo", "c"], ["t", "s.</w>"], ["up", "</w>"], ["ge", "o"], ["m", "er</w>"], ["rev", "enue</w>"], ["comp", "liance</w>"], ["econ", "om"], ["ation", "</w>"], ["a", "t</w>"], ["au", "to"], ["dynam", "ic"], ["marke", "ts.</w>"], ["t", "e"], ["si", "on"], ["auto", "ma"], ["ment", ".</w>"], ["capit", "al</w>"], ["u", "l"], ["sup", "port"], ["i", "ron"], ["es", ",</w>"], ["tech", "no"], ["c", "ur"], ["er", "s"], ["su", "mer</w>"], ["ilit", "y</w>"], ["cur", "r"], ["g", "y</w>"], ["in", "iti"], ["if", "ic"], ["a", "sed</w>"], ["un", "i"], ["year", ",</w>"], ["curr", "enc"], ["%", ",</w>"], ["b", "io"], ["int", "ern"], ["qu", "art"], ["ch", "an"], ["ou", "t"], ["or", "e</w>"], ["s", "y"], ["a", "si"], ["so", "lu"], ["li", "sh"], ["al", "ly</w>"], ["con", "sumer</w>"], ["pro", "duc"], ["chan", "g"], ["lish", "ed</w>"], ["period", ".</w>"], ["pri", "or</w>"], ["intern", "al</w>"], ["sy", "st"], ["ener", "gy</w>"], ["techno", "log"], ["mar", "g"], ["asi", "a</w>"], ["syst", "em"], ["d", ".</w>"], ["wi", "th"], ["ic", "a</w>"], ["a", "in"], ["d", "at"], ["ativ", "es</w>"], ["in", "g"], ["c", "y"], ["dat", "a</w>"], ["s", "er"], ["ou", "t</w>"], ["d", "ec"], ["an", "t</w>"], ["e", "w"], ["initi", "atives</w>"], ["bus", "in"], ["in", "cre"], ["ma", "j"], ["pro", "ve"], ["st", "s</w>"], ["si", "gn"], ["ific", "ant</w>"], ["vic", "e</w>"], ["istic", "s</w>"], ["es", "e</w>"], [",000", ",</w>"], ["im", "prove"], ["b", "u"], ["busin", "ess</w>"], ["th", "ese</w>"], ["comm", "it"], ["ser", "vice</w>"], ["uni", "t</w>"], ["re", "port"], ["re", "li"], ["s", "co"], ["h", "o"], ["incre", "ased</w>"], ["sign", "ificant</w>"], ["co", "sts</w>"], ["s", "e</w>"], ["produc", "t</w>"], ["seg", "ment</w>"], ["maj", "or</w>"], ["i", "z"], ["er", "i"], ["2", "</w>"], ["st", "ed</w>"], ["marg", "in</w>"], ["o", "ver"], ["si", "on</w>"], ["al", "loc"], ["log", "istics</w>"], ["so", "urc"], ["accoun", "ting</w>"], ["jec", "t</w>"], ["ation", "s</w>"], ["tion", ",</w>"], ["sub", "ject</w>"], ["em", "p"], ["solu", "tions</w>"], ["3", "</w>"], ["lo", "y"], ["un", "it"], ["0", "n"], ["emp", "loy"], ["1", "8"], ["d", "e</w>"], ["t", "ran"], ["v", "e</w>"], ["unit", "s.</w>"], ["compan", "y</w>"], ["i", "b"], ["tot", "al</w>"], ["9", "</w>"], ["repor", "t</w>"], ["ti", "p"], ["in", "c"], ["ea", "st</w>"], ["di", "ff"], ["ab", "le</w>"], ["at", "e"], ["a", "i"], ["m", "is"], ["diff", "er"], ["per", "i"], ["in", "ve"], ["sh", "are</w>"], ["be", "en</w>"], ["p", "ur"], ["currenc", "y</w>"], ["ent", "ed</w>"], ["m", "ance</w>"], ["u", "s</w>"], ["r", "ates</w>"], ["system", "s</w>"], ["m", "ul"], ["g", "an"], ["repor", "ting</w>"], ["tiv", "e</w>"], ["m", "at"], ["optim", "iz"], ["k", "s</w>"], ["t", "ea"], ["con", "di"], ["pres", "ented</w>"], ["mul", "tip"], ["al", "l"], ["g", "ener"], ["co", "st</w>"], ["un", "l"], ["in", "n"], ["tion", "s.</w>"], ["s", "a"], ["g", "r"], ["x", "im"], ["or", "gan"], ["unl", "ess</w>"], ["re", "p"], ["multip", "le</w>"], ["o", "k"], ["perfor", "mance</w>"], ["y", "s</w>"], ["ap", "pro"], ["employ", "e"], ["enti", "al</w>"], ["o", "</w>"], ["y", ",</w>"], ["p", "ub"], ["appro", "xim"], ["no", "t</w>"], ["18", "</w>"], ["ti", "o"], ["develop", "ments</w>"], ["c", "i"], ["e", "er"], ["cre", "st"], ["am", "er"], ["i", "on"], ["p", "ac"], ["sco", "re"], ["a", "y"], ["t", "ri"], ["ic", "s.</w>"], ["st", "ated</w>"], ["re", "e"], ["c", "ha"], ["ment", "s.</w>"], ["c", "c"], ["p", "</w>"], ["lin", "e</w>"], ["i", "ts</w>"], ["e", "st"], ["4", "</w>"], ["p", "inn"], ["ation", ".</w>"], ["in", "s</w>"], ["i", "p"], ["d", "s"], ["duc", "ed</w>"], ["ch", "</w>"], ["en", "v"], ["qu", "is"], ["in", "v"], ["t", "-"], ["en", "h"], ["ec", "u"], ["ex", "ib"], ["f", "un"], ["b", "en"], ["cap", "e</w>"], ["u", "m</w>"], ["p", "rev"], ["res", "si"], ["e", "ti"], ["t", "ern"], ["cap", "ab"], ["c", "au"], ["qu", "i"], ["re", "t"], ["de", "d"], ["pinn", "ac"], ["me", "th"], ["hi", "p</w>"], ["est", "ab"], ["dis", "r"], ["nex", "t-"], ["th", "s</w>"], ["ap", "hi"], ["ac", "quis"], ["l", "a"], ["di", "re"], ["an", "tic"], ["ad", "j"], ["enc", "e</w>"], ["anc", "ed</w>"], ["crest", "line</w>"], ["su", "ed</w>"], ["dis", "ci"], ["mar", "i"], ["uct", "u"], ["er", "w"], ["ressi", "ve</w>"], ["re", "qui"], ["ben", "ch"], ["ex", "ecu"], ["v", "ative</w>"], ["ma", "int"], ["an", "ds"], ["ent", "ran"], ["ad", "er</w>"], ["m", "iti"], ["r", "ing</w>"], ["aphi", "es</w>"], ["tion", ".</w>"], ["inv", "ent"], ["ver", "y</w>"], ["in", "eer"], ["su", "cc"], ["t", "ar"], ["pr", "ic"], ["res", "ear"], ["me", "w"], ["fun", "c"], ["ar", "d</w>"], ["ip", "ates</w>"], ["un", "icated</w>"], ["entran", "ts</w>"], ["enti", "ated</w>"], ["a", "red</w>"], ["us", "d</w>"], ["re", "stated</w>"], ["expan", "d"], ["m", "and</w>"], ["v", "y"], ["m", "s</w>"], ["expec", "ts</w>"], ["dire", "ct"], ["mis", "sion</w>"], ["pri", "mari"], ["h", "ub"], ["adj", "ust"], ["amer", "ica</w>"], ["b", "is</w>"], ["erw", "ise</w>"], ["ers", "hip</w>"], ["ay", "ers</w>"], ["disr", "up"], ["re", "g"], ["s", "am"], ["enh", "anced</w>"], ["ment", "um</w>"], ["at", "tri"], ["strat", "us</w>"], ["nex", "ac"], ["-", "driven</w>"], ["s", "al"], ["reli", "ab"], ["int", "ro"], ["for", "m</w>"], ["urc", "ha"], ["quart", "er</w>"], ["ar", "ative</w>"], ["ands", "cape</w>"], ["re", "ments</w>"], ["s", "ure</w>"], ["fra", "mew"], ["istic", "</w>"], ["pres", "ence</w>"], ["ag", "g"], ["maint", "ain"], ["pro", "jec"], ["de", "mand</w>"], ["fl", "exib"], ["di", "es</w>"], ["ree", "ments</w>"], ["bench", "mar"], ["gu", "id"], ["pl", "ined</w>"], ["sam", "e</w>"], ["ili", "ti"], ["bus", "t</w>"], ["al", "ed</w>"], ["m", "acro"], ["or", "s</w>"], ["bu", "ting</w>"], ["tic", "al</w>"], ["expec", "ted</w>"], ["l", "ar"], ["v", "ers</w>"], ["pur", "sued</w>"], ["c", "enter"], ["i", "tion</w>"], ["inve", "sted</w>"], ["b", "ro"], ["resear", "ch</w>"], ["execu", "ted</w>"], ["nex", "t</w>"], ["antic", "ipates</w>"], ["eti", "tive</w>"], ["su", "peri"], ["en", "sure</w>"], ["eng", "es</w>"], ["ded", "icated</w>"], ["succ", "ess</w>"], ["meth", "o"], ["differ", "entiated</w>"], ["rema", "ins</w>"], ["re", "w</w>"], ["urcha", "se</w>"], ["tern", "ative</w>"], ["gra", "d"], ["it", "or"], ["po", "t"], ["prev", "io"], ["in", "no"], ["l", "ined</w>"], ["fl", "uctu"], ["pro", "ac"], ["capab", "iliti"], ["or", "ks</w>"], ["gra", "m</w>"], ["adjust", "ments</w>"], ["q", "1</w>"], ["chang", "es</w>"], ["supp", "li"], ["tea", "ms</w>"], ["pinnac", "le</w>"], ["gr", "aphies</w>"], ["und", "ed</w>"], ["ag", "ed</w>"], ["next-", "gener"], ["int", "eg"], ["cau", "tio"], ["env", "iron"], ["rema", "in</w>"], ["pl", "ayers</w>"], ["intro", "duced</w>"], ["ab", "out</w>"], ["disci", "plined</w>"], ["cont", "ri"], ["up", "com"], ["und", "er</w>"], ["li", "o</w>"], ["ag", "reements</w>"], ["en", "tion</w>"], ["up", "grad"], ["lo", "ok"], ["coun", "t</w>"], ["l", "andscape</w>"], ["requi", "rements</w>"], ["p", "lat"], ["primari", "ly</w>"], ["rep", "urchase</w>"], ["with", "in</w>"], ["oth", "er</w>"], ["period", "s</w>"], ["acquis", "ition</w>"], ["cha", "in</w>"], ["deli", "ver</w>"], ["agg", "ressive</w>"], ["center", "ed</w>"], ["bo", "th</w>"], ["estab", "lished</w>"], ["ai", "-driven</w>"], ["comm", "unicated</w>"], ["ge", "t</w>"], ["perfor", "m</w>"], ["ali", "gn"], ["bro", "ader</w>"], ["miti", "g"], ["lo", "w</w>"], ["bo", "ard</w>"], ["condi", "tions</w>"], ["expand", "ing</w>"], ["ch", "all"], ["invent", "ory</w>"], ["ion", "al</w>"], ["la", "st</w>"], ["deli", "very</w>"], ["improve", "ments</w>"], ["lu", "de</w>"], ["mo", "mentum</w>"], ["direct", "ors</w>"], ["mon", "ths</w>"], ["or", "bis</w>"], ["oth", "erwise</w>"], ["reflec", "t</w>"], ["bo", "dies</w>"], ["strateg", "ic</w>"], ["commit", "ment</w>"], ["accoun", "t</w>"], ["po", "li"], ["attri", "tion</w>"], ["inno", "vative</w>"], ["seg", "ments</w>"], ["comp", "ared</w>"], ["compan", "ys</w>"], ["comp", "arative</w>"], ["lead", "ership</w>"], ["support", "ed</w>"], ["eng", "ineer"], ["nexac", "ore</w>"], ["comp", "etitive</w>"], ["head", "count</w>"], ["guid", "ance</w>"], ["dec", "lined</w>"], ["ret", "ention</w>"], ["be", "low</w>"], ["co", "vers</w>"], ["provid", "ers</w>"], ["strateg", "y</w>"], ["provid", "er</w>"], ["metho", "do"], ["superi", "or</w>"], ["pric", "ing</w>"], ["disrup", "tions</w>"], ["al", "ternative</w>"], ["mon", "itor"], ["organ", "ic"], ["optim", "istic</w>"], ["tar", "get</w>"], ["0", "r"], ["fo", "unded</w>"], ["ro", "bust</w>"], ["tot", "aled</w>"], ["g", "rew</w>"], ["mitig", "ated</w>"], ["fac", "ility</w>"], ["econom", "ic</w>"], ["inc", "lude</w>"], ["framew", "orks</w>"], ["previo", "usly</w>"], ["lead", "ing</w>"], ["maintain", "ing</w>"], ["vy", "ing</w>"], ["po", "sed</w>"], ["hi", "ring</w>"], ["approv", "ed</w>"], ["supp", "ly</w>"], ["pro", "gram</w>"], ["contri", "buting</w>"], ["sourc", "ing</w>"], ["next-gener", "ation</w>"], ["upcom", "ing</w>"], ["integ", "r"], ["port", "fo"], ["eng", "aged</w>"], ["fluctu", "ations</w>"], ["approv", "al"], ["geo", "graphies</w>"], ["employe", "e</w>"], ["out", "perform</w>"], ["proac", "tively</w>"], ["develop", "ment</w>"], ["cautio", "usly</w>"], ["chall", "enges</w>"], ["poli", "tical</w>"], ["q", "4</w>"], ["tion", "s,</w>"], ["eng", "agement</w>"], ["posi", "tively</w>"], ["over", "all</w>"], ["alloc", "ated</w>"], ["look", "ing</w>"], ["macro", "economic</w>"], ["plat", "form</w>"], ["pot", "ential</w>"], ["es", "tim"], ["tec", "h</w>"], ["q", "2</w>"], ["reg", "ional</w>"], ["monitor", "ing</w>"], ["t", "w"], ["ate", "ly</w>"], ["di", "t</w>"], ["estim", "ates</w>"], ["methodo", "log"], ["organic", "ally</w>"], ["di", "an</w>"], ["automa", "tion,</w>"], ["au", "dit</w>"], ["m", "eri"], ["portfo", "lio</w>"], ["s", "of"], ["technolog", "y</w>"], ["meri", "dian</w>"], ["ke", ".</w>"], ["fac", "t"], ["i", "l</w>"], ["dynamic", "s</w>"], ["industr", "ies</w>"], ["man", "u"], ["geo", "political</w>"], ["k", "s,</w>"], ["u", "al</w>"], ["sof", "tw"], ["manu", "fact"], ["dynamic", ",</w>"], ["bio", "tech</w>"], ["ilit", "y.</w>"], ["r", "en"], ["approxim", "ately</w>"], ["a", "head"], ["ge", ".</w>"], ["ic", "al</w>"], ["er", "s.</w>"], ["e", "l"], ["gro", "up</w>"], ["ha", "t</w>"], ["w", "hat</w>"], ["ve", "il</w>"], ["ahead", ",</w>"], ["ran", "ge.</w>"], ["ilit", "y,</w>"], ["benchmar", "ks,</w>"], ["p", "art"], ["ren", "ew"], ["te", "d.</w>"], ["ing", ",</w>"], ["sion", ",</w>"], ["support", ",</w>"], ["part", "n"], ["ali", "ke.</w>"], ["hub", "s.</w>"], ["$", "2"], ["flexib", "ility.</w>"], ["ation", ",</w>"], ["sal", "es,</w>"], ["str", "u"], ["period", ",</w>"], ["reliab", "ility,</w>"], ["capabiliti", "es.</w>"], ["lar", "a</w>"], ["econom", "ics.</w>"], ["func", "tions.</w>"], ["expan", "sion,</w>"], ["suppli", "ers.</w>"], ["optimiz", "ation.</w>"], ["upgrad", "es,</w>"], ["projec", "tions,</w>"], ["score", "s.</w>"], ["posi", "tion.</w>"], ["environ", "ment.</w>"], ["no", "ted.</w>"], ["iron", "veil</w>"], ["q", "3</w>"], ["align", "ment.</w>"], ["renew", "able</w>"], ["in", "stru"], ["it", "y</w>"], ["develop", "ments.</w>"], ["ve", "l"], ["tran", "</w>"], ["integr", "ation,</w>"], ["engineer", "ing,</w>"], ["h", "al"], ["cy", "on</w>"], ["so", "lara</w>"], ["approval", "s.</w>"], ["vel", "tran</w>"], ["ec", "t"], ["methodolog", "y.</w>"], ["u", "d</w>"], ["f", "r"], ["hal", "cyon</w>"], ["u", "d"], ["manufact", "uring</w>"], ["partn", "ers</w>"], ["00", ",000,</w>"], ["c", "lo"], ["s", "ur"], ["ec", "ur"], ["cy", "b"], ["ecur", "ity</w>"], ["clo", "ud</w>"], ["w", "h"], ["cyb", "ers"], ["ect", "ron"], ["te", "e</w>"], ["cybers", "ecurity</w>"], ["s", "em"], ["an", "al"], ["sion", "s</w>"], ["no", "</w>"], ["do", "</w>"], ["o", "w"], ["j", "ud"], ["a", "ff"], ["ho", "w</w>"], ["anal", "y"], ["c", "ore</w>"], ["3", "."], ["el", "ectron"], ["du", "ct"], ["quart", "er"], ["me", "d"], ["wh", "en</w>"], [",000", ",000,</w>"], ["wi", "l"], ["$", "1"], ["i", "ew"], ["de", "vic"], ["jud", "g"], ["sem", "ic"], ["duct", "or</w>"], ["quarter", "ly</w>"], ["ic", "s</w>"], ["chang", "e</w>"], ["wil", "l</w>"], ["bio", "med"], ["en", "ts</w>"], ["m", "id"], ["semic", "on"], ["pub", "lished</w>"], ["industr", "ial</w>"], ["comp", "on"], ["in", "9</w>"], ["4", "."], ["softw", "are</w>"], ["mid", "d"], ["technolog", "ies</w>"], ["t", "r"], ["biomed", "ical</w>"], ["a", "ined</w>"], ["semicon", "ductor</w>"], ["midd", "le</w>"], ["20", "20"], ["is", "ed</w>"], ["20", "1"], ["c", "u"], ["sa", "h"], ["$", "4"], ["f", "ul"], ["i", "es.</w>"], ["ar", "an</w>"], ["w", "e"], ["2", "."], ["-", "sah"], ["a", "fr"], ["$", "3"], ["l", "ic"], ["u", "t</w>"], ["-sah", "aran</w>"], ["ma", "y</w>"], ["automa", "tion</w>"], ["0", "</w>"], ["ec", "t</w>"], ["sub", "-saharan</w>"], ["gn", "</w>"], ["n", "or"], ["report", ".</w>"], ["an", "n"], ["afr", "ica</w>"], ["er", "e</w>"], ["ne", "t</w>"], ["nor", "th</w>"], ["s", "es</w>"], ["1", "."], ["with", "out</w>"], ["t", "er</w>"], ["ve", "ments</w>"], ["n", "p"], ["re", "i"], ["a", "in</w>"], ["pac", "if"], ["mat", "eri"], ["e", "u"], ["6", "."], ["p", "er</w>"], ["ha", "d</w>"], ["c", "ar"], ["m", "ea"], ["k", "n"], ["pacif", "ic</w>"], ["ti", "s"], ["em", "is"], ["out", "p"], ["pac", "t</w>"], ["tr", "ac"], ["ain", "ab"], ["kn", "es"], ["sa", "tis"], ["im", "pact</w>"], ["np", "s</w>"], ["sur", "ve"], ["w", "ea"], ["w", "ere</w>"], ["tran", "s"], ["car", "b"], ["dec", "lin"], ["su", "st"], ["satis", "fac"], ["s", "ha"], ["fi", "ed</w>"], ["eu", "ro"], ["es", "g</w>"], ["su", "red</w>"], ["rev", "iew"], ["id", "enti"], ["lat", "in</w>"], ["knes", "ses</w>"], ["do", "cu"], ["c", "0"], ["p", "e</w>"], ["aff", "ect</w>"], ["review", "ed</w>"], ["l", "s</w>"], ["sust", "ainab"], ["sh", "ow"], ["l", "ated</w>"], ["analy", "tic"], ["fo", "rei"], ["instru", "ments</w>"], ["improve", "ment</w>"], ["ti", "0n"], ["li", "d"], ["outp", "ut</w>"], ["mea", "sured</w>"], ["ann", "ual</w>"], ["satisfac", "tion</w>"], ["sha", "red</w>"], ["u", "th</w>"], ["show", "ed</w>"], ["commit", "tee</w>"], ["er", "ial</w>"], ["wea", "knesses</w>"], ["lid", "ated</w>"], ["g", "ain</w>"], ["mo", "ter</w>"], ["trans", "lated</w>"], ["carb", "on</w>"], ["s", "core</w>"], ["identi", "fied</w>"], ["r", "</w>"], ["ex", "change</w>"], ["5", "."], ["mo", "vements</w>"], ["judg", "ments</w>"], ["emis", "sions</w>"], ["ro", "ls</w>"], ["report", "ed</w>"], ["mat", "erial</w>"], ["sustainab", "ility</w>"], ["reflec", "ts</w>"], ["forei", "gn</w>"], ["euro", "pe</w>"], ["a", "1</w>"], ["materi", "ally</w>"], ["pro", "moter</w>"], ["declin", "ing</w>"], ["con", "so"], ["8", "%</w>"], ["loc", "al</w>"], ["m", "in"], ["alloc", "ates</w>"], ["e", "v"], ["cont", "rols</w>"], ["so", "uth</w>"], ["s", "e"], ["at", "e</w>"], ["9", "."], ["7", "."], ["conso", "lidated</w>"], ["9", "%</w>"], ["an", "y</w>"], ["5", "%</w>"], ["fi", "g"], ["re", "c"], ["res", ",</w>"], ["6", "%</w>"], ["electron", "ics</w>"], ["7", "%</w>"], ["trac", "tion,</w>"], ["currenc", "ies.</w>"], ["ing", ".</w>"], ["2", "%</w>"], ["year", ".</w>"], ["ar", "an"], ["y", "s,</w>"], ["devic", "es</w>"], ["s", "s"], ["ho", "we"], ["t", "e</w>"], ["202", "3</w>"], ["rev", "ised</w>"], ["o", ",</w>"], ["lat", "er</w>"], ["-", "year</w>"], ["ar", "y</w>"], ["year", "-"], ["su", "g"], ["a", "1"], ["sco", "res,</w>"], ["gu", "aran"], ["surve", "ys,</w>"], ["lin", "es.</w>"], ["4", "%</w>"], ["howe", "ver</w>"], ["fo", "l"], ["di", "d</w>"], ["ear", "li"], ["w", "ing</w>"], ["over", "-year</w>"], ["3", "%</w>"], ["ge", "sted</w>"], ["figure", "s.</w>"], ["compon", "ents</w>"], ["year-", "over-year</w>"], ["report", "ing.</w>"], ["rec", "or"], ["ma", "tion</w>"], ["fig", "ure</w>"], ["t", "0</w>"], ["lo", "wing</w>"], ["202", "1</w>"], ["tim", "e</w>"], ["earli", "er</w>"], ["ful", "l</w>"], ["pub", "lic"], ["1", "%</w>"], ["ac", "t"], ["sug", "gested</w>"], ["2020", "</w>"], ["er", "e"], ["l", "d</w>"], ["202", "2</w>"], ["in", "for"], ["no", "te</w>"], ["us", "ed</w>"], ["h", "ere"], ["fol", "lowing</w>"], ["cont", "ained</w>"], ["ri", "g"], ["rig", "h"], ["infor", "mation</w>"], ["ad", "d"], ["0", "%</w>"], ["0r", "</w>"], ["act", "ual</w>"], ["201", "9</w>"], ["8", "."], ["res", "er"], ["add", "res"], ["ea", "se</w>"], ["g", "lo"], ["0", "."], ["n", "eg"], ["v", "i"], ["us", "e</w>"], ["u", "re"], ["d", "s.</w>"], ["expan", "sion</w>"], ["docu", "ment</w>"], ["pl", "ease</w>"], ["00", "00"], ["marke", "ts</w>"], ["n", "</w>"], ["recor", "ds.</w>"], ["optimiz", "ation</w>"], ["analytic", "s</w>"], ["f", "</w>"], ["c", "e"], [",", "0"], ["re", "f"], ["202", "1"], ["sion", ".</w>"], ["pr", "0"], ["c", "0n"], ["9", "e"], ["l", "0"], ["202", "3"], ["infrastruct", "ure"], ["r", "0"], ["h", "ed</w>"], ["c0", "m"], ["p", "reli"], ["1", "y</w>"], ["u", "t"], ["preli", "min"], ["tech", "n"], ["202", "2"], ["t", "er"], ["0", "f</w>"], ["p", "a"], ["o", "b"], [",000", "</w>"], ["score", "s</w>"], ["c", "fo"], ["a", "re"], ["e", "i"], ["i", "l"], ["log", "y</w>"], ["a", ",</w>"], ["f", "0r</w>"], ["compon", "ent"], ["2021", ".</w>"], ["t", "ained</w>"], ["sourc", "es</w>"], ["t", "u"], ["en", "d</w>"], ["9", ".</w>"], ["o", "d</w>"], ["bu", "t</w>"], ["w", "r"], ["i", "ess</w>"], ["ar", "y,</w>"], ["prelimin", "ary,</w>"], ["expec", "t"], ["softw", "are"], ["enc", "es</w>"], ["es", "t</w>"], ["ho", "ld</w>"], ["2023", ".</w>"], ["here", "in</w>"], ["ev", "ed</w>"], ["con", "s"], ["1", "o"], ["p", "re"], ["b", "ased</w>"], ["pa", "ss"], ["addres", "s"], ["re", "ac"], ["prov", "ed</w>"], ["ob", "tained</w>"], ["sur", "pass"], ["mo", "d"], ["guaran", "te"], ["tu", "red</w>"], ["public", "ation</w>"], ["ver", "sions</w>"], ["approxim", "ate</w>"], ["r", "ate</w>"], ["cfo", ",</w>"], ["reac", "hed</w>"], ["be", "li"], ["reli", "able</w>"], ["e", "d.</w>"], ["co", "o,</w>"], ["mod", "est</w>"], ["cap", "tured</w>"], ["surpass", "ing</w>"], ["expect", "ations</w>"], ["du", "e</w>"], ["st", "o"], ["enc", "ies</w>"], ["beli", "eved</w>"], ["address", "able</w>"], ["i", "t</w>"], ["a", "h"], ["iz", "ation</w>"], ["st", "encies</w>"], ["ref", "er"], ["$2", ",0"], ["f", "ined</w>"], ["s", "ec"], ["ut", "ure</w>"], ["uni", "ts</w>"], ["con", "versions</w>"], ["00", "000"], ["sto", "od</w>"], ["ter", "min"], ["de", "fined</w>"], ["ss", "ary</w>"], ["im", "proved</w>"], ["di", "str"], ["hi", "b"], ["it", "ed</w>"], ["refer", "ences</w>"], ["f", "uture</w>"], ["ce", "o,</w>"], ["inve", "st"], ["om", "e</w>"], ["si", "stencies</w>"], ["is", "t</w>"], ["system", "s.</w>"], ["p", "ar"], ["guaran", "tee</w>"], ["re", "su"], ["l", "ts</w>"], ["a", "ti0n"], ["reser", "v"], ["t", "t"], ["in", "con"], ["ic", "t"], ["int", "er"], ["man", "y</w>"], ["1", "i"], ["2022", ".</w>"], ["righ", "ts</w>"], ["par", "t</w>"], ["out", "si"], ["wr", "it"], ["f", "ic"], ["termin", "o"], ["il", "ed</w>"], ["guarante", "ed.</w>"], ["i", "bu"], ["outsi", "de</w>"], ["hib", "ited</w>"], ["instru", "ments.</w>"], ["incon", "sistencies</w>"], ["ex", "ist</w>"], ["7", "%,</w>"], ["distr", "ibu"], ["analy", "st</w>"], ["id", "ent"], ["resu", "lts</w>"], ["ad", "v"], ["ex", "er"], ["exer", "c"], ["ow", "n</w>"], ["employe", "es</w>"], ["ha", "ve</w>"], ["initi", "a"], ["8", "%,</w>"], ["writ", "t"], ["201", "9.</w>"], ["techn", "ical</w>"], ["ei", "r</w>"], ["str", "ict"], ["res", "em"], ["exerc", "ise</w>"], ["2020", ".</w>"], ["aff", "</w>"], ["po", "s"], ["re", "produc"], ["writt", "en</w>"], ["ev", "ents</w>"], ["ad", "ers</w>"], ["st", "aff</w>"], ["cre", "p"], ["comp", "iled</w>"], ["reproduc", "ed</w>"], ["pro", "hibited</w>"], ["resem", "b"], ["l", "ance</w>"], ["inc", "ident"], ["it", "ly</w>"], ["th", "eir</w>"], ["c0m", "p"], ["tic", "e</w>"], ["invest", "ment</w>"], ["f", "t</w>"], ["glo", "ssary</w>"], ["distribu", "tion</w>"], ["re", "aders</w>"], ["adv", "ised</w>"], ["tea", "m</w>"], ["crep", "anc"], ["in", ".</w>"], ["sec", "tion</w>"], ["s", "ome</w>"], ["l", "-"], ["d", "ra"], ["pre", "ting</w>"], ["t", "y</w>"], ["no", "tice</w>"], ["ac", "t</w>"], ["ib", "le</w>"], ["initia", "tive"], ["enc", "es.</w>"], ["6", "%,</w>"], ["co", "incident"], ["5", "%,</w>"], ["th", "at</w>"], ["gener", "ated</w>"], ["c", "lar"], ["dis", "crepanc"], ["differ", "ences.</w>"], ["1", "3."], ["por", "t</w>"], ["resemb", "lance</w>"], ["of", "fic"], ["infrastructure", ".</w>"], ["no", "ted</w>"], ["employ", "ed</w>"], ["1", "%,</w>"], ["automa", "tic"], ["ific", "ations</w>"], ["dra", "ft</w>"], ["se", "tt"], ["strict", "ly</w>"], ["exp", "lic"], ["judg", "ment</w>"], ["marg", "in.</w>"], ["p", "end"], ["organ", "ization</w>"], ["a", "men"], ["ful", "l-"], ["b", "ally</w>"], ["termino", "logy</w>"], ["de", "pend"], ["k", "e</w>"], ["initiative", "s.</w>"], ["l", "e"], ["coincident", "al</w>"], ["sal", "es</w>"], ["neg", "ative</w>"], ["righ", "t</w>"], ["inter", "preting</w>"], ["7", "</w>"], ["fin", "al</w>"], ["0n", "</w>"], ["v", "ary</w>"], ["depend", "ing</w>"], ["s", "cre"], ["approval", "s</w>"], ["neg", "li"], ["g", "ible</w>"], ["amen", "d</w>"], ["cont", "act</w>"], ["res", "o"], ["offic", "ial</w>"], ["clar", "ifications</w>"], ["sourc", "es.</w>"], ["explic", "itly</w>"], ["environ", "ment</w>"], ["full-", "time</w>"], ["upgrad", "es</w>"], ["ag", "e</w>"], ["v", "iew"], ["scre", "en</w>"], ["public", "ation.</w>"], ["electron", "ics.</w>"], ["end", ".</w>"], ["sh", "ou"], ["capabiliti", "es</w>"], ["reso", "lu"], ["0", "%,</w>"], ["00000", ",</w>"], ["automa", "tion.</w>"], ["suppli", "ers</w>"], ["0000", "00"], ["for", "mat"], ["view", "ing</w>"], ["sett", "ing"], ["a", "9e"], ["d", "ur"], ["reser", "ve"], ["9", "%,</w>"], ["align", "ment</w>"], ["n", "t"], ["4", "%,</w>"], ["p", "age</w>"], ["g", "e</w>"], ["reserv", "es</w>"], ["glo", "bally</w>"], ["d", "a"], ["a9e", "ment</w>"], ["projec", "tions</w>"], ["ah", "ea"], ["pos", "es.</w>"], ["a", "s"], ["format", "ting</w>"], ["1", "2."], ["per", "mis"], ["ent", ".</w>"], ["1", "e</w>"], ["devic", "es.</w>"], ["peri", "0"], ["hub", "s</w>"], ["negli", "gible</w>"], ["condi", "tions.</w>"], ["solu", "tions.</w>"], ["component", "s.</w>"], ["shou", "ld</w>"], ["5", "</w>"], ["reserve", "d.</w>"], ["sup", "port</w>"], ["here", ".</w>"], ["l", "y.</w>"], ["0", "per"], ["func", "tions</w>"], ["pur", "poses.</w>"], ["s", "0"], ["resolu", "tion</w>"], ["di", "vi"], ["engineer", "ing</w>"], ["permis", "sion.</w>"], ["in", "divi"], ["posi", "tive</w>"], ["end", "ed</w>"], ["indivi", "du"], ["w", "ho"], ["we", "b"], ["discrepanc", "ies.</w>"], ["st", "ate"], ["benchmar", "ks</w>"], ["6", "</w>"], ["f", "id"], ["enti", "ty</w>"], ["ahea", "d</w>"], ["web", "b"], ["bio", "tech"], ["al", "1</w>"], [",", "2"], ["reliab", "ility</w>"], [",", "1"], ["all", "y.</w>"], ["biotech", "s</w>"], ["ver", "sion.</w>"], ["state", "d.</w>"], ["software", ".</w>"], ["ar", "a"], ["ro", "b"], ["fid", "ential</w>"], ["int", "ended</w>"], ["who", "m</w>"], ["mar", "c"], ["on", "ly.</w>"], ["posi", "tion</w>"], ["con", "fidential</w>"], ["methodolog", "y</w>"], ["marc", "us</w>"], ["000000", ",</w>"], ["e", "e</w>"], [",", "4"], ["cons", "ent.</w>"], ["docu", "ment.</w>"], ["individu", "al</w>"], ["ali", "ke</w>"], ["integr", "ation</w>"], [",", "9"], ["2", "%,</w>"], ["automatic", "ally.</w>"], ["setting", "s.</w>"], ["p", "0"], ["vi", "d</w>"], ["le", "ly</w>"], ["al", "s</w>"], ["ok", "a"], ["dynam", "ic</w>"], [",", "7"], ["gro", "up"], ["1", "at"], ["er", "t</w>"], ["webb", ",</w>"], ["a1", "l</w>"], ["da", "vid</w>"], ["group", "s</w>"], ["t", "inued</w>"], ["ara", "h</w>"], ["rob", "ert</w>"], ["k", "im"], ["se", "d.</w>"], ["1", "4."], ["ran", "ge</w>"], ["a", "is"], ["3", "%,</w>"], ["industr", "iess</w>"], ["$", "8"], ["s", "arah</w>"], ["kim", "ur"], ["so", "lely</w>"], ["th", "or"], ["capit", "als</w>"], ["j", "am"], ["jam", "es</w>"], [",", "3"], ["addres", "sed.</w>"], ["econom", "ics</w>"], ["2", "5."], ["en", "9"], ["thor", "nt"], ["e", "z"], ["man", "a9ement</w>"], ["00", ",000</w>"], ["1", "0."], ["h", "a</w>"], ["c", "to"], ["1", "6."], ["manufact", "ur"], ["dynamic", "ss</w>"], ["re", "9"], ["qu", "ez"], ["for", ",</w>"], ["y", "a</w>"], ["ais", "ha</w>"], ["cust", "0"], ["20", "."], [",", "5"], ["analytic", "s.</w>"], [",", "6"], ["2", "4."], ["flexib", "ility</w>"], ["en", "a</w>"], ["v", "as"], ["vas", "quez"], ["oka", "for,</w>"], ["cto", ",</w>"], ["regu", "lat"], ["p", "ate"], ["en", ",</w>"], ["i", "1"], ["pri", "ya</w>"], ["cust0", "mer</w>"], ["i", "a1</w>"], ["on", ",</w>"], ["el", "ena</w>"], ["c", "mo"], ["18", "."], ["ch", "en,</w>"], ["istic", "ss</w>"], ["ac", "r0"], ["t", "in9</w>"], [",", "000000,</w>"], ["n", "ai"], ["s", "r"], ["r", ",</w>"], ["0r", "y</w>"], ["$2,0", "2"], ["2", "1."], ["2", "6."], ["2", "7."], ["rep", "0r"], ["kimur", "a,</w>"], [",", "8"], ["1", "9."], ["9", "y</w>"], ["1", "1."], ["k", "</w>"], [",000", ",000</w>"], ["0", "m</w>"], ["log", "isticss</w>"], ["n", "g</w>"], ["e", "t"], ["system", "s,</w>"], ["ti0n", "s</w>"], ["t", "0"], ["$", "9"], ["ing", "s</w>"], ["l", ",</w>"], ["c0", "un"], ["en", "t</w>"], ["pr0", "v"], ["$", "18</w>"], ["vasquez", ",</w>"], ["manufactur", "ings</w>"], ["i", "r"], ["u", "latory</w>"], ["nai", "r,</w>"], ["er", "ss</w>"], ["pate", "l,</w>"], ["c0n", "tinued</w>"], ["f", "0r"], ["instru", "ment"], ["infrastructure", ",</w>"], ["1", "7."], ["thornt", "on,</w>"], ["surve", "ys</w>"], ["cmo", ",</w>"], ["system", "ss</w>"], ["partn", "erss</w>"], ["2", "8."], ["instrument", "s,</w>"], ["000", ",000,</w>"], ["2", "9."], ["ic", "s,</w>"], ["n", "i"], ["$", "5"], ["2", "3."], ["technolog", "iess</w>"], ["deve", "l0"], ["devel0", "p"], ["9", ",</w>"], ["ref", "1"], ["2", "2."], ["financ", "ia1</w>"], [",1", "00,000,</w>"], ["devic", "es,</w>"], ["e", "d"], ["k", ",</w>"], ["oper", "ati0n"], ["3", "2."], ["u", "gh</w>"], ["electron", "ics,</w>"], ["ti0n", "</w>"], ["dur", "in9</w>"], ["1at", "ory</w>"], ["oper", "at"], ["peri0", "d</w>"], ["$", "6"], ["i", "0"], ["solu", "tions,</w>"], [",2", "00,000,</w>"], ["p", "e"], ["2", ",0"], ["acr0", "ss</w>"], ["oper", "ation"], ["$", "7"], ["fr", "0m</w>"], ["0", "m"], ["component", "s,</w>"], ["3", "4."], ["3", ",000,000,</w>"], ["operati0n", "al</w>"], ["0per", "ating</w>"], ["stron", "9</w>"], ["3", "1."], ["m", "n"], ["regu", "1atory</w>"], ["0", "ver</w>"], ["c", "e</w>"], [",3", "00,000,</w>"], ["software", ",</w>"], ["ac", "c0un"], ["1", "5."], ["currenc", "ies</w>"], ["ic", "a,</w>"], ["l0", "g"], ["f", "0"], ["r", "e</w>"], ["1", "u"], ["3", "0."], ["io", "d</w>"], ["lin", "es</w>"], ["ec", "ting</w>"], ["9", ",000,000,</w>"], ["gr", "0"], ["y", "ee</w>"], ["re9", "ulatory</w>"], [",7", "00,000,</w>"], ["trac", "tion</w>"], [",4", "00,000,</w>"], ["recor", "ds</w>"], ["2", ",000,000,</w>"], ["2", "1"], ["deve", "1"], [",9", "00,000,</w>"], ["7", ",000,000,</w>"], ["deve1", "op"], ["man", "age"], ["o", "c"], ["2021", ",</w>"], ["2023", ",</w>"], ["3", "3."], ["n", "0"], ["wi", "t"], ["regulat", "0ry</w>"], ["5", ",000,000,</w>"], ["9e", "o"], ["th", "r0"], ["o", "v"], ["ke", "t</w>"], ["0", "p"], ["$4", "6"], ["hi", "r"], ["1", ",000,000,</w>"], ["lo", "9"], ["0per", "ational</w>"], ["capit", "a1</w>"], ["a", "9"], ["9", "h</w>"], ["c0n", "sumer</w>"], ["m", "it"], ["0p", "tim"], ["ro", "ss</w>"], ["6", ",000,000,</w>"], ["4", ",000,000,</w>"], ["reflec", "tin9</w>"], ["fi", "9"], ["$3", "5"], ["log", "y.</w>"], ["fo", "lio</w>"], ["ic", "ally</w>"], ["analytic", "s,</w>"], ["r", "n"], ["$3", "3"], ["tive", "1y</w>"], ["m", "0"], ["b", "0"], ["thr0", "ugh</w>"], [",6", "00,000,</w>"], ["$4", "8"], ["ec", "0n"], ["1o", "c"], [",5", "00,000,</w>"], ["$1", "4"], ["9", "n"], ["20", "</w>"], ["ure", "s</w>"], ["$2", "9"], ["anc", "ial</w>"], ["str", "0n"], ["t0", "t"], ["throu", "9h</w>"], ["strat", "e"], ["operation", "a1</w>"], ["gr0", "wth</w>"], ["oper", "a"], ["2022", ",</w>"], ["c", "t</w>"], ["p0", "si"], ["9", "5."], ["ac", "r"], ["2", "8"], ["si", "0n"], ["y", "y</w>"], ["1o", "g"], ["ce", "o</w>"], ["du", "str"], ["re", "s</w>"], ["str0n", "g</w>"], ["b", "i0"], ["1", "9</w>"], ["ec0n", "om"], ["is", "hed</w>"], ["$4", "0"], ["a1", "i"], ["$4", "2"], ["se", "9"], ["0", "th"], ["r", "s</w>"], ["$1", "9"], ["per", "f0r"], ["us", "1y</w>"], ["1", "1"], ["techn", "0"], ["8", "5."], ["9", "1."], ["ir", "0n"], ["duc", "t</w>"], ["t", "folio</w>"], ["2", "6"], ["$2", "5"], ["acc0un", "ting</w>"], ["1", "in"], ["$1", "6"], ["1", "ead"], ["1", "ished</w>"], ["$4", "1"], ["pri", "0r</w>"], ["on", "g</w>"], ["$", "7%</w>"], ["$", "18"], ["ap", "pr0v"], ["operat", "in9</w>"], ["m", "0n"], ["8", "4."], ["8", "1."], ["ni", "g</w>"], ["cont", "in"], ["re", "m"], ["2020", ",</w>"], ["9", "ra"], ["an", "ys</w>"], ["a", "st</w>"], ["9", "r"], ["2", "2</w>"], ["9", "3."], ["$2", "6"], ["iz", "ation.</w>"], ["$4", "3"], ["9", "ro"], ["$1", "0"], ["$4", "9"], ["ref1", "ecting</w>"], ["2", "7"], ["de", "1i"], ["0", ",000,000,</w>"], ["$2", "7"], ["intern", "a1</w>"], ["al", "s.</w>"], ["ab", "1e</w>"], ["t", "ential</w>"], ["9ro", "wth</w>"], ["f", "u"], ["ti0n", ",</w>"], ["9", "6."], ["$1", "3"], ["0r", "e</w>"], ["amer", "ica,</w>"], ["1o", "gy</w>"], ["s", "c"], ["id", "er</w>"], ["1", "5</w>"], ["7", "8."], ["c0mp", "any</w>"], ["t", "a"], ["2", "k</w>"], ["ati0n", "</w>"], ["9", "0."], ["m", "e</w>"], ["2", "7</w>"], ["201", "9,</w>"], ["w", "n"], [",8", "00,000,</w>"], ["8", "3."], ["asi", "a,</w>"], ["$3", "%</w>"], ["e", "p"], ["a1", "ly</w>"], ["8", ",000,000,</w>"], ["p", "1"], ["8", "7."], ["eg", "y</w>"], ["0r", "gan"], ["r", "r"], ["8", "9."], ["$1", "%</w>"], ["$2", "1"], ["i1", "it"], ["mar", "k"], ["9", "4."], ["c", "a"], ["$3", "6"], ["d", "0"], ["em", "pl"], ["m", "u"], ["fi9", "ures</w>"], ["au", "t0"], ["8", "</w>"], ["$3", "7"], ["id", "ers</w>"], ["2", "4</w>"], ["i1", "ity</w>"], ["2", "1</w>"], ["mit", "ment</w>"], ["2", "3</w>"], ["so", "1u"], ["io", "</w>"], ["f", "1"], ["r", "p"], ["$3", "4"], ["ati0n", "s</w>"], ["i", "on</w>"], ["up", "p"], ["d", "d</w>"], ["$", "20"], ["ge", "0"], ["1", "7</w>"], ["o", "er"], ["int", "e"], ["re9", "ional</w>"], ["2", "5"], ["0", "c"], ["e", "ed</w>"], ["$1", "1"], ["comp", "li"], ["integ", "ra"], ["supp", "0r"], ["ve", "ly</w>"], ["un", "t</w>"], ["$4", "5"], ["d", ",</w>"], ["ge", "ment</w>"], ["$1", "7"], ["hir", "in9</w>"], ["ec", "ts</w>"], ["a1", "loc"], ["prelimin", "ary</w>"], ["econ", "0m"], ["en9", "ineer"], ["al", "1y</w>"], ["struct", "ure</w>"], ["0", "ut"], ["8", "0."], ["rep0r", "ting</w>"], [".", ".</w>"], ["$", "5%</w>"], ["re", "s.</w>"], ["$1", "5"], ["t", "n"], ["al", "1oc"], ["7", "9."], ["ron", "g</w>"], ["log", "ies</w>"], ["pot", "enti"], ["i", "th</w>"], ["1", "6</w>"], ["lo", "9y</w>"], ["$4", "7"], ["t", "s"], ["lu", "tions</w>"], ["9", "2."], ["2", "4"], ["at", "us</w>"], ["enti", "0n</w>"], ["m", "unicated</w>"], ["t", ".</w>"], ["geo", "poli"], ["$3", "9"], ["ti", "0"], ["s0", "urc"], ["2", "3"], ["miti", "9"], ["w", "ti"], ["$2", "4"], ["l", "p"], ["$2,0", "20"], ["cons", "ent</w>"], ["reg", "ion"], ["cust", "om"], ["ac", "tively</w>"], ["$3", "1"], ["all", "0c"], ["i", "</w>"], ["li", "tical</w>"], ["c0mp", "liance</w>"], ["8", "6."], ["8", "8."], ["$2", "8"], ["on", "ly</w>"], ["p", "u"], ["0m", ",</w>"], ["techno", "1ogy</w>"], ["io", "d.</w>"], ["whi", "1e</w>"], ["empl", "0"], ["tip", "le</w>"], ["miti9", "ated</w>"], ["si", "0n</w>"], ["wti", "h</w>"], ["9", "rew</w>"], ["accoun", "tin9</w>"], ["$", "8%</w>"], [",", ",</w>"], ["lo9", "istics</w>"], ["y", "ea"], ["d", "r"], ["k", ".</w>"], ["a", "k</w>"], ["per", "mission</w>"], ["tri", "buting</w>"], ["p", "0r"], ["do", "logy.</w>"], ["$3", "0"], ["p0", "tential</w>"], ["p", "1at"], ["p1at", "form</w>"], ["$4", "%</w>"], ["1", "9.</w>"], ["tic", "s</w>"], ["on", "al</w>"], ["en", "n"], ["m", ",</w>"], ["st", "omer</w>"], ["$3", "8"], ["$", "9%</w>"], ["2", "6</w>"], ["00000", "</w>"], ["000", "k,</w>"], ["cfo", "</w>"], ["si", "9n"], ["si9n", "ificant</w>"], ["maintain", "in9</w>"], ["devel0p", "ments</w>"], ["c", "ial</w>"], ["report", "in9</w>"], ["ret", "enti0n</w>"], ["un", "1"], ["look", "in9</w>"], ["wi", "h"], ["en9", "aged</w>"], ["with", "h</w>"], ["3.", "7%</w>"], ["peri0", "d.</w>"], ["9eo", "political</w>"], ["co", "p"], ["xim", "ately</w>"], ["1", "4"], ["ar", "</w>"], ["pr0", "duct</w>"], ["a", "ed</w>"], ["rema", "in"], ["di", "tions</w>"], ["itor", "ing</w>"], ["c0", "sts</w>"], ["geo", "po"], ["0rgan", "ically</w>"], ["comp", "1i"], ["direct", "0r"], ["direct0r", "s</w>"], ["ed", "d</w>"], ["men", "n"], ["nexac", "0re</w>"], ["fluctu", "ati0ns</w>"], ["perf0r", "mance</w>"], ["4.", "3%</w>"], ["solu", "ti0ns</w>"], ["l0g", "istics</w>"], ["e", "t</w>"], ["cau", "ti0"], ["g", "in</w>"], ["un1", "ess</w>"], ["con", "ti"], ["renew", "ab1e</w>"], ["aut0", "ma"], ["00", "k,</w>"], ["1", "ast</w>"], ["on", "s</w>"], ["pric", "in9</w>"], ["l", "a</w>"], ["r0", "bust</w>"], ["ener", "9y</w>"], ["r", "at"], ["reserv", "ed</w>"], ["automatic", "ally</w>"], ["$2", "2"], ["gro", "w"], ["2", "k.</w>"], ["p0", "sed</w>"], ["mon", "it"], ["p0r", "tfolio</w>"], ["$", "6%</w>"], ["se9", "ment</w>"], ["contri", "bu"], ["bi0", "tech</w>"], ["g", "o"], ["comp1i", "ance</w>"], ["$2", "3"], ["de", "v"], ["l", "enges</w>"], ["lead", "in9</w>"], ["rou", "gh</w>"], ["ti0n", "s.</w>"], ["0", "ut</w>"], ["ing", "g</w>"], ["8", "2."], ["rep0r", "t</w>"], ["h", "ere</w>"], ["5", "upp"], ["1", "2"], ["em", "s</w>"], ["empl0", "yee</w>"], ["macro", "ec0nom"], ["macroec0nom", "ic</w>"], ["s", "c0"], ["e", "b"], ["supp", "1y</w>"], ["ch", "al"], ["l0", "gy</w>"], ["6.", "4%</w>"], ["ion", "s</w>"], ["eng", "age"], ["co", "o</w>"], ["0ptim", "ization.</w>"], ["c", "us"], ["i", "g</w>"], ["c", "al</w>"], ["k", "ing</w>"], ["eng", "a9ement</w>"], ["c", "p"], ["2", ".</w>"], ["ge", "op"], ["a", "al</w>"], ["rema", "i"], ["$", "0%</w>"], ["framew", "0r"], ["framew0r", "ks</w>"], ["env", "ir0n"], ["0th", "er</w>"], ["a1", "ternative</w>"], ["so1u", "tions</w>"], ["m", "p"], ["cautio", "us1y</w>"], ["im", "pr0"], ["upcom", "in9</w>"], ["d", "it"], ["invent", "0ry</w>"], ["inc", "1u"], ["inc1u", "de</w>"], ["f0r", "m</w>"], ["t0t", "aled</w>"], ["man", "ag"], ["$1", "2"], ["t", "ory</w>"], ["m", "acr0"], ["monitor", "in9</w>"], ["ma", "ined</w>"], ["tar", "9e"], ["j", "or</w>"], ["u", "5"], ["u5", "d</w>"], ["proac", "tive1y</w>"], ["r", "y</w>"], ["$3", "2"], ["3.", "8%</w>"], ["deve1op", "ments</w>"], ["1", "io</w>"], ["s0urc", "ing</w>"], ["afr", "ica,</w>"], ["3", "0"], ["en9ineer", "ing,</w>"], ["up", "c0m"], ["chan", "9"], ["0", "ver"], ["tot", "a1</w>"], ["maj", "0r</w>"], ["1", "0"], ["ap", "pr0"], ["e", "es</w>"], ["0ut", "perform</w>"], ["inte", "9r"], ["1", "7"], ["devel0p", "ment</w>"], ["wi", "t</w>"], ["pr0", "actively</w>"], ["pr0", "gram</w>"], ["condi", "ti0ns</w>"], ["e", "pr"], ["devel0p", "ments.</w>"], ["inn", "0"], ["inn0", "vative</w>"], ["r", "w"], ["per", "o"], ["superi", "0r</w>"], ["y", "e"], ["1", "9"], ["c", "</w>"], ["d", "es,</w>"], ["g", "es</w>"], ["s", "n"], ["v", "es</w>"], ["a1", "-driven</w>"], ["uct", "ure</w>"], ["tar9e", "t</w>"], ["inn", "g</w>"], ["ti", "al</w>"], ["th", "ro"], ["f0", "lio</w>"], ["0r", "bis</w>"], ["prev", "i0"], ["multip", "1e</w>"], ["mu", "1"], ["ke", "ts.</w>"], ["ver", "sion</w>"], ["enc", "y</w>"], ["t", "t</w>"], ["mar", "9"], ["ar", "a</w>"], ["e", "e"], ["$2,020", ".</w>"], ["3.", "4%</w>"], ["upc0m", "ing</w>"], ["re", "1i"], ["over", "a1l</w>"], ["or", "9"], ["or9", "an"], ["dustr", "y</w>"], ["u", "c"], ["fo", "m</w>"], ["cauti0", "usly</w>"], ["monit", "0"], ["monit0", "ring</w>"], ["c0n", "tributing</w>"], ["meth", "0"], ["o", "ve"], ["next-gener", "ati0n</w>"], ["b", "r0"], ["a9", "ed</w>"], ["wit", "th</w>"], ["e", "ment</w>"], ["c0", "vers</w>"], ["a", "f"], ["w", "d</w>"], ["approv", "a1"], ["contin", "u"], ["y", "er"], ["c0m", "municated</w>"], ["mo", "</w>"], [".", "s</w>"], ["in", "ess</w>"], ["ref1", "ect</w>"], ["estab", "1ished</w>"], ["co", "on"], ["out", "per"], ["ener", "ation</w>"], ["med", "ical</w>"], ["or", "r</w>"], ["plat", "f0rm</w>"], ["up", "9ra"], ["acc0un", "t</w>"], ["macr0", "economic</w>"], ["c", "1"], ["regu", "l"], ["o", "t"], ["5upp", "ly</w>"], ["a", "k"], ["d", "y"], ["so", "lidated</w>"], ["n0", "t</w>"], ["techno", "lo9y</w>"], ["portfo", "1io</w>"], ["id", "ated</w>"], ["$2", "%</w>"], ["approxim", "ate"], ["mar9", "in</w>"], ["el", "ect"], ["it", "al</w>"], ["m0", "mentum</w>"], ["1ead", "ership</w>"], ["exp", "endit"], ["si0n", "s</w>"], ["sh", "0"], ["fac", "i1ity</w>"], ["in", "9,</w>"], ["wi", "h</w>"], ["for", "mance</w>"], ["sourc", "in9</w>"], ["e", "1"], ["metho", "d0"], ["$1", "1."], ["c0m", "mitment</w>"], ["$2,02", "3"], ["1", "5"], ["$2,02", "1"], ["strate", "9y</w>"], ["3", "2"], ["m0n", "itoring</w>"], ["ain", "ing</w>"], ["br0", "ader</w>"], ["ic", "a1</w>"], ["techn0", "logy</w>"], ["1i", "tical</w>"], ["de1i", "ver</w>"], ["3", "4"], ["comp", "eti"], ["ai", "-"], ["is", "s</w>"], ["$2,0", "19.</w>"], ["v", "ed</w>"], ["tion", "al</w>"], ["fr", "mo</w>"], ["v", "o"], ["$4", "4"], ["f1", "exib"], ["om", "ics.</w>"], ["al1oc", "ated</w>"], ["1", "ic"], ["2", "5</w>"], ["9eo", "graphies</w>"], ["sr", "t"], ["port", "f0lio</w>"], ["fr", "m</w>"], ["organic", "a1ly</w>"], ["mu1", "tiple</w>"], ["a1i", "gn"], ["acquis", "iti"], ["crest", "1in"], ["crest1in", "e</w>"], ["c0un", "t</w>"], ["chal", "1"], ["chal1", "enges</w>"], ["be", "1o"], ["be1o", "w</w>"], ["om", "p"], ["0th", "erwise</w>"], ["i1it", "y.</w>"], ["2", "9"], ["pac", "ific"], ["pacific", ",</w>"], ["pr0v", "ider</w>"], ["a1i", "ke.</w>"], ["1ead", "ing</w>"], ["posi", "tive1y</w>"], ["engineer", "in9,</w>"], ["ag", "9"], ["disrup", "ti0ns</w>"], ["cust", "o"], ["a", "co"], ["ac", "co"], ["hal", "cy"], ["win", "ds</w>"], ["previ0", "usly</w>"], ["lo", "0"], ["discrepanc", "ies</w>"], ["4.", "9%</w>"], ["c0", "st</w>"], ["c0n", "ditions</w>"], ["me", "ent</w>"], ["geop", "0"], ["geop0", "litical</w>"], ["appr0v", "als.</w>"], ["pinnac", "1e</w>"], ["a", "v"], ["opera", "tio"], ["eng", "a9ed</w>"], ["om", "ic</w>"], ["mis", "si0n</w>"], ["con", "su"], ["7.", "2%</w>"], ["acro", "s"], ["a1", "ed</w>"], ["y", "h"], ["t0t", "al</w>"], ["enter", "pr"], ["jec", "tions,</w>"], ["fig", "ur"], ["1", "lenges</w>"], ["s0", "uth</w>"], ["geopoli", "tic"], ["bi0", "medical</w>"], ["e", ".</w>"], ["next-", "9"], ["3.", "9%</w>"], ["potenti", "a1</w>"], ["ti0n", ".</w>"], ["al", "tern"], ["s", "p"], ["lo", "o"], ["appr0v", "ed</w>"], ["supp", "1i"], ["1", "idated</w>"], ["head", "c0unt</w>"], ["mn", "t</w>"], ["techno", "l0gy</w>"], ["emp", "1o"], ["emp1o", "yee</w>"], ["euro", "pe"], ["europe", ",</w>"], ["to", "mer</w>"], ["cont", "ro"], ["1og", "istics</w>"], ["emis", "si0ns</w>"], ["ac", "c"], ["en9", "es</w>"], ["setting", "s</w>"], ["at", "r"], ["wi", "ith</w>"], ["thornt", "on</w>"], ["e1", "ectron"], ["ali", "9n"], ["1", "3"], ["et", "d</w>"], ["m0n", "ths</w>"], ["p0si", "tively</w>"], ["inte9r", "ation,</w>"], ["000", ",000</w>"], ["3.", "5%</w>"], ["dustr", "ies</w>"], ["organic", "al1y</w>"], ["o", "pr"], ["3", "1"], ["16.", "1%</w>"], ["jud", "9"], ["t", "es</w>"], ["geopo", "1itical</w>"], ["8", "8"], ["s0", "lutions</w>"], ["1", "andscape</w>"], ["tot", "a1ed</w>"], ["d", "n"], ["men", "</w>"], ["d", "ed</w>"], ["ust", "omer</w>"], ["gu", "latory</w>"], ["ec", "</w>"], ["incre", "a"], ["n", "0r"], ["declin", "in9</w>"], ["cha", "1lenges</w>"], ["th", "r"], ["ap", "pr"], ["next-9", "eneration</w>"], ["pro", "9ra"], ["pro9ra", "m</w>"], ["v", "ider</w>"], ["c1", "ou"], ["techn0", "logies</w>"], ["ati0n", ".</w>"], ["e", "f</w>"], ["v", "enue</w>"], ["vy", "in9</w>"], ["pub", "1ished</w>"], ["expan", "si0n"], ["expansi0n", ",</w>"], ["c0n", "t"], ["8", "io"], ["inno", "v"], ["se9", "ments</w>"], ["approximate", "1y</w>"], ["flexib", "i1ity.</w>"], ["000000", "</w>"], ["w", "ed</w>"], ["addres", "sed</w>"], ["t", "in"], ["3.", "2%</w>"], ["l", "ea"], ["or", "g"], ["chall", "en9es</w>"], ["eg", "ic</w>"], ["d", "0</w>"], ["sa", "1"], ["en9", "agement</w>"], ["region", "a1</w>"], ["exp", "en"], ["ag9", "ressive</w>"], ["ea", "st"], ["ir0n", "veil</w>"], ["method0", "logy.</w>"], ["all0c", "ated</w>"], ["13.", "1%</w>"], ["n", "it"], ["lo0", "king</w>"], ["be", "l0"], ["3", "3</w>"], ["kimur", "a</w>"], ["3.", "3%</w>"], ["s0", "f"], ["sign", "ific"], ["n0", "ted.</w>"], ["tr", "atus</w>"], ["ran", "9e"], ["ran9e", ".</w>"], ["c0mp", "arative</w>"], ["automa", "ti0n,</w>"], ["13.", "3%</w>"], ["uctu", "ations</w>"], ["5.", "8%</w>"], ["b0", "ard</w>"], ["semic", "0n"], ["semic0n", "ductor</w>"], ["3.", "6%</w>"], ["c", "m"], ["differ", "ences</w>"], ["so", "l"], ["comp", "0n"], ["7.", "3%</w>"], ["approva1", "s.</w>"], ["fin", "n"], ["attri", "ti0n</w>"], ["9", "ic</w>"], ["deve1op", "ment</w>"], ["an", "a1"], ["ana1", "y"], ["out", "perf0r"], ["outperf0r", "m</w>"], ["de1i", "very</w>"], ["manage", "m"], ["n0r", "th</w>"], ["12.", "3%</w>"], ["e", "o"], ["impr0", "vements</w>"], ["1", "ined</w>"], ["ti", "s</w>"], ["pub", "1ic"], ["12.", "8%</w>"], ["$", "4."], ["8.", "4%</w>"], ["fin", "an"], ["up9ra", "des,</w>"], ["n", "a"], ["q", "n"], ["iti", "atives</w>"], ["over", "al1</w>"], ["c0mp", "anys</w>"], ["techno", "l0g"], ["technol0g", "ies</w>"], ["d", "ing</w>"], ["c1ou", "d</w>"], ["infra", "stru"], ["posi", "ti0n.</w>"], ["ser", "vi"], ["5.", "3%</w>"], ["ic", ",</w>"], ["c", "ing</w>"], ["a1loc", "ates</w>"], ["geo", "9r"], ["regulat", "or"], ["primari", "1y</w>"], ["ter", "prise</w>"], ["un", "g</w>"], ["acquisiti", "0n</w>"], ["conso", "1idated</w>"], ["4", "7</w>"], ["e", "ur"], ["cons", "0"], ["cons0", "lidated</w>"], ["eg", "ment</w>"], ["previo", "us1y</w>"], ["9.", "9%</w>"], ["per", "r"], ["6.", "6%</w>"], ["p", "enditure</w>"], ["peri0", "ds</w>"], ["ma", "in</w>"], ["ali9n", "ment.</w>"], ["1", "6"], ["l0g", "y.</w>"], ["ded", "ic"], ["appr0", "ximately</w>"], ["enter", "pri"], ["port", "ed</w>"], ["eng", "in"], ["t", ",</w>"], ["13.", "0%</w>"], ["bel0", "w</w>"], ["3", "6</w>"], ["s0", "lara</w>"], ["13.", "6%</w>"], ["$2,02", "2.</w>"], ["gu", "res</w>"], ["a1loc", "ated</w>"], ["em", "n"], ["meth0", "dology.</w>"], ["on", ".</w>"], ["tic", "</w>"], ["re1i", "ab"], ["in", "al</w>"], ["s0f", "tw"], ["i", "gn</w>"], ["1og", "y.</w>"], ["envir0n", "ment.</w>"], ["in", "ds</w>"], ["0ver", "all</w>"], ["6.", "8%</w>"], ["guarante", "ed</w>"], ["m", "i"], ["pl", "ay"], ["1", "l</w>"], ["reflec", "t"], ["8.", "1%</w>"], ["4", "0</w>"], ["so", "1"], ["wit", "g</w>"], ["ou", "th</w>"], ["lop", "ments</w>"], ["integra", "ti0n,</w>"], ["reliab", "i1it"], ["reliabi1it", "y,</w>"], ["g", "i"], ["a", "ti"], ["f1exib", "ility.</w>"], ["r", "po"], ["2.", "1%</w>"], ["i", "or</w>"], ["dec", "1ined</w>"], ["16.", "5%</w>"], ["$1", "%,</w>"], ["ann", "u"], ["ab", "0ut</w>"], ["13.", "9%</w>"], ["3.", "1%</w>"], ["9", "n</w>"], ["er", "r</w>"], ["6.", "2%</w>"], ["ter", "ed</w>"], ["ov", "ver</w>"], ["1", "s</w>"], ["ha", "1"], ["wi", "le</w>"], ["ei", "ro"], ["portfo", "li"], ["c0n", "solidated</w>"], ["ge0", "political</w>"], ["mar", "r"], ["comp", "ar"], ["aut0ma", "tion,</w>"], ["coun", "ting</w>"], ["re", "po"], ["8", "3"], ["c", "r"], ["3", "1</w>"], ["supp0r", "ted</w>"], ["a", "agement</w>"], ["n", "0</w>"], ["13.", "8%</w>"], ["pr0v", "iders</w>"], ["peri", "or</w>"], ["18.", "2%</w>"], ["6", "0</w>"], ["ern", "al</w>"], ["p1", "ayers</w>"], ["5", "1</w>"], ["0ptim", "istic</w>"], ["c0mp", "ared</w>"], ["rev", "en"], ["prov", "i"], ["t", "ure</w>"], ["4", "3"], ["7.", "1%</w>"], ["9.", "2%</w>"], ["n", "y</w>"], ["or9an", "ically</w>"], ["geo9r", "aphies</w>"], ["methodo", "l0gy.</w>"], ["g", "ated</w>"], ["me", "t</w>"], ["2", ",</w>"], ["a9", "g"], ["3", "9</w>"], ["6.", "3%</w>"], ["e", "ments</w>"], ["func", "ti0ns.</w>"], ["dri", "v"], ["5.", "5%</w>"], ["0", ",</w>"], ["c0mp", "etitive</w>"], [",7", "00000,</w>"], ["6.", "7%</w>"], ["8.", "0%</w>"], ["str", "y</w>"], ["ment", "t</w>"], ["q", "l</w>"], ["per", "id"], ["ok", "ing</w>"], ["y", "a"], ["12.", "9%</w>"], ["bo", "di"], ["opera", "ti"], ["b", "en</w>"], ["o", "ve</w>"], ["in", "d"], ["n", "e</w>"], ["5", "0</w>"], ["acro", "s</w>"], ["dit", "ure</w>"], ["st", "ro"], ["0.", "6%</w>"], ["ch", "en</w>"], ["o", "th</w>"], ["8.", "9%</w>"], ["m", "ics</w>"], ["u", "m"], ["expand", "in9</w>"], ["no", "t"], ["5", "outh</w>"], ["3", "3"], ["po", "ses</w>"], ["strate", "9ic</w>"], ["r", "ise</w>"], ["lead", "er"], ["ec0nom", "ics.</w>"], ["13.", "2%</w>"], ["x", "o"], ["e", "ly</w>"], ["me", "ents</w>"], ["ve", "1"], ["c", "to</w>"], ["or", "m</w>"], ["no", "logy</w>"], ["w", "with</w>"], ["4.", "5%</w>"], ["10.", "2%</w>"], ["quarter", "1y</w>"], ["industr", "ia1</w>"], ["10.", "4%</w>"], ["ma", "k"], ["infra", "st"], ["d0", "cu"], ["t", "ss</w>"], ["ic", "e</w>"], ["optimiz", "ati0n.</w>"], ["co", "s"], ["p", "eiro"], ["deve1op", "ments.</w>"], ["en", "r"], ["supp1i", "ers.</w>"], ["financ", "i"], ["vasquez", "</w>"], ["8io", "tech</w>"], ["y", "st"], ["tip", "n"], [",", "000000</w>"], ["5", "4</w>"], ["h", "0"], ["t", "ai"], ["pr0", "moter</w>"], ["menn", "t</w>"], ["ti", "i"], ["chan9", "e</w>"], ["rec", "0r"], ["1", "ron"], ["east", ",</w>"], ["7", "8"], ["f0", "unded</w>"], ["b0", "dies</w>"], ["7.", "4%</w>"], ["capab", "i1"], ["capabi1", "iti"], ["9", "3"], ["regulat", "o"], ["a9g", "ressive</w>"], ["$", "0%,</w>"], ["s", "l</w>"], ["$2,023", ".</w>"], ["v", "ing</w>"], ["2.", "3%</w>"], ["1", "n"], ["1n", "dustries</w>"], ["$2,021", ".</w>"], ["i", "ing</w>"], ["sub", "j"], ["carb", "0n</w>"], ["wi", "r"], ["or", "ing</w>"], ["fo", "und"], ["jud9", "ments</w>"], ["de", "l"], ["ge0", "graphies</w>"], ["13.", "5%</w>"], ["cautio", "us"], ["int", "r0"], ["intr0", "duced</w>"], ["in", "h</w>"], ["2.", "8%</w>"], ["peri0", "d,</w>"], ["i", "ance</w>"], ["ar", ",</w>"], ["f", "a"], ["indu", "st"], ["acros", "ss</w>"], ["t", "al</w>"], ["c", "ess</w>"], ["cmo", "</w>"], ["so1", "ara</w>"], ["t", "sr"], ["at", "egy</w>"], ["u", "g"], ["di", "ven</w>"], ["go", "wth</w>"], ["appro", "x"], ["ne", "ts</w>"], ["loy", "ee</w>"], ["ve1", "tran</w>"], ["7.", "0%</w>"], ["$2,02", "2</w>"], ["14.", "4%</w>"], ["menn", "ts</w>"], ["me", "tn"], ["y", "er</w>"], ["pr0", "jections,</w>"], ["r", "m</w>"], ["l", "l</w>"], ["8.", "5%</w>"], ["forei", "9n</w>"], ["requi", "re"], ["p0si", "tion.</w>"], ["c", "so"], ["an", "ges</w>"], ["al", "lo"], ["l", "po"], ["$", "6%,</w>"], ["2.", "0%</w>"], ["h", "s</w>"], ["th", "in</w>"], ["6", "6</w>"], ["develop", "m"], ["automa", "ti0n</w>"], ["pur", "su"], ["cha", "se</w>"], ["11.", "4%</w>"], ["y", "ed</w>"], ["n0", "te</w>"], ["materi", "a1</w>"], ["t", "rough</w>"], ["3", ",000000,</w>"], ["1oc", "al</w>"], ["sc0", "res.</w>"], ["c0nt", "rols</w>"], ["16.", "8%</w>"], ["c0n", "tained</w>"], ["o", "s"], ["econ0m", "ics.</w>"], ["2.", "5%</w>"], ["l", "ess</w>"], ["b0", "th</w>"], [",4", "00000,</w>"], ["r", "0n"], ["5.", "9%</w>"], ["7.", "9%</w>"], ["du", "ing</w>"], ["ea", "s</w>"], ["7.", "5%</w>"], ["rei", "gn</w>"], ["str", "a"], ["ag", "ree"], ["9.", "6%</w>"], ["$4", "%,</w>"], ["4.", "8%</w>"], ["i", "k"], ["p", "ut</w>"], ["j", "</w>"], ["geo", "gr"], ["n", "ancial</w>"], ["4.", "2%</w>"], ["ma", "re"], ["c", "f"], ["fo", "un"], ["7.", "8%</w>"], ["k", "y</w>"], ["ha1", "cyon</w>"], ["es", "ss</w>"], ["pro", "m0"], ["prom0", "ter</w>"], ["12.", "7%</w>"], ["compli", "anc"], ["in", "fr"], ["ar", "i"], ["me", "t"], ["ab", "o"], ["5", "4"], ["4", "7"], ["1.", "8%</w>"], ["il", "a</w>"], ["st", "or"], ["stor", "ng</w>"], ["6", "3</w>"], ["fl", "ecting</w>"], ["ma", "e"], ["u", "</w>"], ["int", "aining</w>"], ["lop", "ment</w>"], ["pur", "poses</w>"], ["e", "y"], ["4.", "4%</w>"], ["m", "s"], ["iron", "ve"], ["sub", "jec"], ["methodo", "1ogy.</w>"], [",1", "00,000</w>"], ["8", "00,000,</w>"], ["posi", "tive"], ["comm", "un"], ["l0", "oking</w>"], ["9", "gested</w>"], [",8", "00,000</w>"], ["am", "ics</w>"], ["figu", "ers</w>"], ["di", "r"], ["e", "5"], ["e5", "g</w>"], ["i", "st"], ["gr0", "up</w>"], ["12.", "2%</w>"], ["webb", "</w>"], ["wil", "1</w>"], ["li", "ers.</w>"], ["m", "m</w>"], ["4.", "1%</w>"], ["antic", "ip"], ["mo", "ment"], ["2", "00"], ["fro", "</w>"], ["ent", "s.</w>"], ["3", "7</w>"], ["x", "t</w>"], ["ul", "d</w>"], ["ai", "a</w>"], ["a9", "reements</w>"], ["contribu", "tin9</w>"], ["io", "usly</w>"], ["approx", "i"], ["pres", "en"], ["fol", "lo"], ["9", "1"], ["re", "man"], ["10.", "0%</w>"], ["act", "u"], ["re", "pr"], ["h", "c"], ["2.", "7%</w>"], ["re", "pot"], ["12.", "4%</w>"], ["as", "a</w>"], [",8", "00000,</w>"], ["6.", "9%</w>"], ["1i", "er</w>"], ["m", "sr"], ["ag", "re"], ["d", "er</w>"], ["1in", "es.</w>"], [",", "00"], ["14.", "2%</w>"], ["y", "r"], ["r", "d</w>"], ["r", "ket</w>"], ["be", "e"], ["3", "2</w>"], ["ro", "bu"], ["m0", "vements</w>"], ["ti", "o</w>"], ["semicon", "duct"], ["ad", "ing</w>"], ["th", "i"], ["4", "8</w>"], ["6", "5</w>"], ["8.", "6%</w>"], ["ep", "an"], ["2,0", "21"], ["2,021", ".</w>"], ["optim", "is"], ["th", "h"], ["man", "n"], ["acc", "ross</w>"], ["f0", "reign</w>"], ["fra", "m"], ["re", "ased</w>"], ["i", "wth</w>"], ["7", "000,000,</w>"], ["1ron", "veil</w>"], ["5.", "0%</w>"], ["c", "n"], ["x", "penditure</w>"], ["g", "ments</w>"], ["inn", "</w>"], ["inc", "lu"], ["ma", "tion,</w>"], ["rec0r", "ds.</w>"], ["d", "ou"], ["$", "7%,</w>"], ["9", "00,000,</w>"], ["un", "ti"], ["gener", "ation</w>"], ["f", "er"], ["b", "s</w>"], ["15.", "9%</w>"], ["4", "6</w>"], ["id", "ance</w>"], ["wih", "t</w>"], ["o", "s</w>"], ["f", "om"], ["bio", "me"], ["se", "e</w>"], ["14.", "9%</w>"], ["s", "..</w>"], ["rep0r", "t.</w>"], ["io", "ds</w>"], ["disci", "p1"], ["discip1", "ined</w>"], [",5", "00000,</w>"], ["2.", "2%</w>"], ["6", "9</w>"], ["p", "le</w>"], ["7.", "6%</w>"], ["w", "en</w>"], ["ti0n", "s,</w>"], ["win", "9</w>"], ["re1iab", "ility,</w>"], ["$2", "."], ["remai", "end</w>"], ["reg", "i"], ["head", "wi"], ["5", "tratus</w>"], ["fl", "u"], ["r", "s"], ["p", "ir"], ["17.", "6%</w>"], ["re", "st"], ["%", "%</w>"], ["address", "ab1e</w>"], ["pe", "e"], ["at", "ory</w>"], ["i", "1</w>"], ["de", "e"], ["inc", "l"], ["2,0", "23"], ["ea", "s"], ["14.", "6%</w>"], ["commun", "ic"], ["su", "9gested</w>"], ["f1", "uctuations</w>"], ["oka", "for</w>"], ["biomed", "ica1</w>"], ["18.", "8%</w>"], ["ilit", "y"], ["s0ftw", "are</w>"], ["at", "tr"], ["ainab", "ility</w>"], ["$2", "%,</w>"], ["al1oc", "ates</w>"], ["acr", "ross</w>"], ["2.", "6%</w>"], ["mark", "ket</w>"], [",2", "00000,</w>"], ["3", "8"], ["g", "or"], ["e1ectron", "ics</w>"], ["optimiz", "a"], ["14.", "8%</w>"], ["t", "a</w>"], ["p", "at"], ["4.", "6%</w>"], ["19.", "3%</w>"], ["r", "r</w>"], ["at", "a</w>"], ["8.", "2%</w>"], ["k", "i"], ["c", "s</w>"], ["ve", "ment</w>"], ["tea", "m"], ["6", ",000,000</w>"], ["t", "ing.</w>"], ["mar", "ks,</w>"], ["sa1", "es</w>"], ["8.", "7%</w>"], ["10.", "6%</w>"], ["$2,0", "20</w>"], ["14.", "7%</w>"], [",6", "00000,</w>"], ["a", "se</w>"], ["a", "m</w>"], ["5", ",000000,</w>"], ["3.", "0%</w>"], ["i", "v"], ["ou", "gh</w>"], ["yer", "a</w>"], ["r", "gowth</w>"], ["financ", "il</w>"], ["gr", "w"], ["i", "ven</w>"], ["c", "stomer</w>"], ["3", "4</w>"], ["ow", "ing</w>"], ["ai", "</w>"], ["7", "2</w>"], ["u", "tions</w>"], ["18.", "6%</w>"], ["7", "0</w>"], ["10.", "7%</w>"], ["re", "e</w>"], ["ecu", "ted</w>"], ["deli", "ve"], ["whi", "e</w>"], ["ear", "1ier</w>"], ["sug", "9e"], ["sug9e", "sted</w>"], ["s", "rong</w>"], ["t", "ra"], ["k", "o"], ["ma", "an"], ["q", "c"], ["cust", "on"], ["custon", "er</w>"], ["t", "ems</w>"], ["ion", ",</w>"], ["pate", "l</w>"], ["portfoli", "0</w>"], ["mit", "tee</w>"], ["comp", "a"], ["exp", "ce"], ["ct", "ors</w>"], ["17.", "1%</w>"], ["l", "ly</w>"], ["te", "ed.</w>"], ["a1ign", "ment</w>"], ["10.", "3%</w>"], ["0ptim", "ization</w>"], ["ir", "ng</w>"], ["eur", "0"], ["eur0", "pe</w>"], ["ti", "ated</w>"], ["dec", "1in"], ["ri", "ven</w>"], ["elect", "r0n"], ["n", "s</w>"], ["4", "0"], ["6.", "0%</w>"], ["enterpr", "is"], ["perr", "iod</w>"], ["fic", "ant</w>"], ["contro", "1s</w>"], ["u", "o"], ["5", "7</w>"], ["f", "ou"], ["ex", "chan9e</w>"], ["l", "ands"], ["sh0", "wed</w>"], ["e", "tr"], ["indu", "sr"], ["ds", "cape</w>"], ["geopolitic", "a1</w>"], [",9", "00000,</w>"], ["in", "f</w>"], ["xim", "ate</w>"], ["16.", "7%</w>"], ["manufactur", "in9</w>"], ["5.", "7%</w>"], ["un", "n"], ["custo", "omer</w>"], ["4.", "7%</w>"], ["fo", "1"], ["fo1", "lowing</w>"], ["ac", "ore</w>"], ["l0", "cal</w>"], ["c", "ah"], ["c", "ed</w>"], ["5", "9</w>"], ["capabi1iti", "es.</w>"], ["a1ign", "ment.</w>"], ["a", "etd</w>"], ["9.", "8%</w>"], ["d", "t</w>"], ["19.", "8%</w>"], ["framew", "or"], ["techno", "1og"], ["s", "gement</w>"], ["sup", "po"], ["at", "d</w>"], ["ra", "structure</w>"], ["5.", "1%</w>"], ["infrastruct", "ur"], ["m", "ra"], ["ed", "r</w>"], ["g", "ic</w>"], ["5", "000,000,</w>"], ["chan9", "es</w>"], ["f", "from</w>"], ["wir", "h</w>"], ["perio", "</w>"], ["per", "od</w>"], ["0", "d</w>"], ["re", "opr"], ["0n", "al</w>"], ["26.", "1%</w>"], ["ro", "m</w>"], ["accoun", "t"], ["5", "ub"], ["ent", "ory</w>"], ["c0n", "versions</w>"], ["rep0r", "ted</w>"], ["5", "ust"], ["2.", "9%</w>"], ["us", "b"], ["81.", "7%,</w>"], ["$1", "."], ["comm", "p"], ["3", "0</w>"], ["er", "ica</w>"], ["o", "over</w>"], ["n", "ar"], ["n", "er</w>"], ["nai", "r</w>"], ["man", "a"], [",9", "00,000</w>"], ["9.", "0%</w>"], ["rep", "urc"], ["o", "ev"], ["$2,0", "19</w>"], ["$2", "21"], ["19.", "0%</w>"], ["w", "are</w>"], ["all0c", "ates</w>"], ["on", "ents</w>"], ["0.", "8%</w>"], ["econ0m", "ic</w>"], ["perio", "s</w>"], ["an", "l</w>"], ["y", "l</w>"], ["srt", "ong</w>"], ["y", "t</w>"], ["a", "a</w>"], ["sustainab", "i1ity</w>"], ["cm", "op"], ["t", "in</w>"], ["5.", "6%</w>"], ["6", "1</w>"], ["b", "ject</w>"], ["per", "u"], ["perfor", "m"], ["ci", "</w>"], ["period", "d</w>"], ["dur", "in</w>"], ["at", "egic</w>"], ["o", "m</w>"], ["supp0r", "t,</w>"], ["with", "0ut</w>"], ["materi", "a1ly</w>"], ["consu", "m"], ["th", "iss</w>"], ["yn", "g</w>"], ["$", "8%,</w>"], ["1", ",</w>"], ["sh0", "uld</w>"], ["6", "7</w>"], ["pro", "du"], ["l", "yy</w>"], ["1", "ated</w>"], ["macro", "econ"], ["re", "pro"], ["ref1", "ects</w>"], ["previo", "us"], [",4", "00,000</w>"], ["o", "o"], ["s0", "lu"], ["cu", "ustomer</w>"], ["4", "2</w>"], ["comp", "ra"], ["r", "diven</w>"], ["pero", "id"], ["g", "l0"], ["ful", "1</w>"], ["ib", "g</w>"], ["x", "e</w>"], ["ear", "</w>"], ["t", "ese</w>"], ["i", "ed</w>"], ["3", "5</w>"], ["ab", "lished</w>"], ["loc", "a1</w>"], ["h", "tis</w>"], ["tar", "g"], ["12.", "0%</w>"], ["pub1ic", "ation</w>"], ["fol", "1"], ["27.", "8%,</w>"], ["9", "2"], ["flexib", "ili"], ["mn", "ts</w>"], ["19.", "2%</w>"], ["ear", "ch</w>"], ["en", "su"], ["9.", "1%</w>"], ["enter", "ed</w>"], ["17.", "0%</w>"], ["w", "uth</w>"], ["y", "r</w>"], ["3", ",000,000</w>"], ["deve", "lpo"], ["n", "x"], ["mew", "orks</w>"], ["mak", "re"], ["7", "9"], [",6", "00,000</w>"], ["d0cu", "ment</w>"], ["$1", "0."], ["agre", "em"], ["up", "r"], ["om", "ing</w>"], ["2", "2"], ["ov", "re</w>"], ["oc", "mp"], ["n", "ent</w>"], ["19.", "7%</w>"], ["satisfac", "ti0n</w>"], ["2", "9</w>"], ["m", "istic</w>"], ["13.", "4%</w>"], ["head", "con"], ["cr", "ur"], ["ai", "ve</w>"], ["v", "re"], ["con", "ver"], ["9.", "3%</w>"], ["4", "6"], ["fi9", "ure</w>"], ["0.", "9%</w>"], ["p", "ly</w>"], ["thro", "gh</w>"], ["im", "g</w>"], ["cur", "rec"], ["dec1in", "ing</w>"], ["se", "t"], ["at", "o"], ["pac", "i"], ["$2", "4."], ["c", "s.</w>"], ["sc0", "res,</w>"], ["bo", "t"], ["18.", "7%</w>"], ["l", "lowing</w>"], ["an", "e</w>"], ["dr", "u"], ["peri", "iod</w>"], ["tim", "ates</w>"], ["ts", "rong</w>"], ["3", "5"], ["tio", "usly</w>"], ["b", "i"], ["g", "in"], ["it", "on</w>"], ["pr", "ro"], ["eri", "ally</w>"], ["un", "ting</w>"], ["8.", "8%</w>"], ["5.", "4%</w>"], ["1.", "4%</w>"], ["tern", "al</w>"], ["fer", "entiated</w>"], ["1", "00,000,</w>"], ["co", "o"], ["no", "logies</w>"], ["wh", "le</w>"], ["q", "l"], ["c", "ts</w>"], ["s", "r</w>"], ["r", "fom</w>"], ["ic", "ing</w>"], ["i", "r</w>"], ["dec", "l"], ["techno1og", "ies</w>"], ["engin", "e"], ["fom", "r</w>"], ["pub", "li"], ["rep", "urcha"], ["ti", "hs</w>"], ["nt", "inued</w>"], [",7", "00,000</w>"], ["23.", "3%</w>"], ["p", "eer"], ["halcy", "0n</w>"], ["p", "so"], ["3", "7"], ["8", "6"], ["asi", "</w>"], ["ac", "con"], ["u", "ting</w>"], ["met", "n</w>"], ["refl", "et"], ["emn", "ts</w>"], ["fac", "i"], ["th", "ees</w>"], ["financ", "ila</w>"], ["11.", "5%</w>"], ["eg", "r"], ["comp", "i1"], ["ri", "or</w>"], ["vi", "e"], ["tn", "ers</w>"], ["metn", "s</w>"], ["li", "very</w>"], ["i", "itiatives</w>"], ["4", ",000000,</w>"], ["11.", "1%</w>"], ["regi", "0nal</w>"], ["marke", "y</w>"], ["12.", "1%</w>"], ["fr", "rom</w>"], ["ec", "h"], ["acquis", "i"], ["5ub", "-saharan</w>"], ["dynam", "i"], ["up", "tions</w>"], ["im", "p"], ["con", "inued</w>"], ["gr", "wth</w>"], ["uc", "stomer</w>"], ["e", "m</w>"], ["or", "ss</w>"], ["19.", "5%</w>"], ["sh", "ar"], ["t", "an"], ["dur", "ig</w>"], ["b", "a"], ["co", "b"], ["e", ",</w>"], ["macro", "e"], ["to", "al</w>"], ["in", "f"], ["in", "o"], ["dis", "c"], ["4", "5"], ["11.", "8%</w>"], ["maj", "o"], ["fac", "ili"], ["por", "ting</w>"], ["y", "h</w>"], ["np", "5</w>"], ["5ust", "ainability</w>"], ["rema", "inn"], ["q", "</w>"], ["pro", "g"], ["at", "ted</w>"], ["8", "1"], ["n", "u"], ["n", "ess</w>"], ["gor", "wth</w>"], ["sub", "-"], ["macro", "econ0mic</w>"], ["maj", "orr</w>"], ["5", "core</w>"], ["q", "ith</w>"], ["at", "s</w>"], ["9", "e</w>"], ["si", "</w>"], ["disci", "p"], ["w", "oth</w>"], ["nex", "a"], ["3", "00,000,</w>"], ["6.", "5%</w>"], ["25.", "4%,</w>"], ["6", "4</w>"], ["st", "t"], ["22.", "7%</w>"], ["2", "k,</w>"], ["co", "tss</w>"], ["qu", "ar"], ["h", "t</w>"], ["ac", "e</w>"], ["acr", "iss</w>"], ["13.", "7%</w>"], ["c", "y</w>"], ["14.", "1%</w>"], ["dy", "an"], ["fro", "om</w>"], ["32.", "1%,</w>"], ["wea", "knes"], ["mo", "ve"], ["im", "prov"], ["in", ",</w>"], ["1", "9,</w>"], ["vi", "yng</w>"], ["g", "ment</w>"], ["20.", "3%</w>"], ["oth", "er"], ["3", "000,000,</w>"], ["5", "2</w>"], ["19.", "4%</w>"], ["hi", "le</w>"], ["3", "6"], ["d", "es</w>"], ["ern", "ative</w>"], ["c", "l0"], ["cl0", "ud</w>"], ["l", "al"], ["11.", "0%</w>"], ["$3", "%,</w>"], ["comp", "ara"], ["econom", "ic"], ["v", "iders</w>"], ["ran", "</w>"], ["c", "tions.</w>"], ["co", "omp"], ["trans", "1ated</w>"], ["exp", "n"], ["$2,02", "3</w>"], ["differ", "enti"], ["ti", "ions</w>"], ["pr", "io"], ["wi", "1l</w>"], ["solu", "t"], ["am", "eri"], ["am", "s</w>"], ["24.", "5%</w>"], ["1at", "er</w>"], ["glo", "b"], ["12.", "6%</w>"], ["7", "00,000,</w>"], ["oc", "n"], ["posi", "ti"], ["pub", "lish"], ["ac", "ial</w>"], ["y", "st</w>"], ["ro", "duced</w>"], ["ann", "ce</w>"], ["es", "ti"], ["gro", "wh"], ["growh", "t</w>"], ["supp0r", "t</w>"], ["23.", "9%</w>"], ["wn", "t</w>"], ["5", "ome</w>"], ["rp", "ior</w>"], ["28.", "6%</w>"], ["6", "000,000,</w>"], ["mis", "si"], ["5", "7"], ["fol1", "owing</w>"], ["annu", "a1</w>"], ["as", "ai</w>"], ["ers", "ecurity</w>"], ["5", "6</w>"], ["bro", "ad"], ["th", "e"], ["on", "s.</w>"], ["econom", "i"], ["st", "ong</w>"], ["24.", "7%</w>"], ["2.", "4%</w>"], ["sc", "0re</w>"], ["ch", "h"], ["ais", "a</w>"], ["2", "000,000,</w>"], ["an", "ding</w>"], ["po", "se"], ["techno", "lo9"], [",9", "9"], ["$33", "7,000,000,</w>"], ["h", "wile</w>"], ["et", "n"], ["ta", "ed</w>"], ["ap", "p"], ["re", "pur"], ["repur", "ch"], ["33.", "8%</w>"], ["estab", "lish"], ["conti", "b"], ["contib", "ued</w>"], ["15.", "0%</w>"], ["24.", "9%</w>"], ["hi", "ri"], ["im", "ately</w>"], ["optimiz", "ati0n</w>"], ["regu", "ulatory</w>"], ["4", "000,000,</w>"], ["bee", "en</w>"], ["14.", "5%</w>"], ["op", "it"], ["ac", "eo"], ["aceo", "ss</w>"], ["ov", "r</w>"], ["1.", "0%</w>"], ["crur", "ency</w>"], ["m", "er"], ["expan", "si0n</w>"], ["head", "wn"], ["ad", "n"], ["semiconduct", "0r</w>"], ["or", "n"], ["29.", "3%</w>"], ["b", "or"], ["5", "5</w>"], ["indu", "s"], ["identi", "fi"], ["cont", "r0"], ["contr0", "ls</w>"], ["st", "tr"], ["mn", "aagement</w>"], ["i", "ver</w>"], ["mari", "ly</w>"], ["crest", "lin"], ["i", "le</w>"], ["5", "egment</w>"], ["h0", "w</w>"], ["e", "ess</w>"], ["co", "tinued</w>"], ["85.", "2%,</w>"], ["at", "in9</w>"], ["por", "r"], ["1", "y.</w>"], ["ter", "ly</w>"], ["16.", "2%</w>"], ["l", "g"], ["d", "le</w>"], ["f0", "llowing</w>"], ["93.", "9%,</w>"], ["w", "orks</w>"], ["thr", "ugh</w>"], ["dru", "ing</w>"], ["20", ",</w>"], ["op", "ear"], ["5", ",</w>"], [",1", "00000,</w>"], ["so", "k"], ["enter", "rp"], ["enterrp", "ise</w>"], ["10.", "9%</w>"], ["com", "ap"], ["fra", "structure</w>"], ["comp", "p"], ["o", "ter</w>"], ["r", "remained</w>"], ["es", "n"], ["grow", "h</w>"], ["pe", "tio"], ["g", "ent</w>"], ["$", "5%,</w>"], ["un", "de"], ["ex", "t</w>"], ["f", "on"], ["$2,020", ",</w>"], ["li", "ty</w>"], ["ti", "g</w>"], ["d", "at</w>"], ["refl", "l"], ["ust", "ments</w>"], ["12.", "5%</w>"], ["acr", "p"], ["acrp", "ss</w>"], ["tr", "e</w>"], ["op", "per"], ["in", "f0r"], ["inf0r", "mation</w>"], ["s", "ly</w>"], ["o", "d"], ["2", ",000,000</w>"], ["busin", "esss</w>"], ["c", "no"], ["y", "ving</w>"], ["4", "5</w>"], ["pos", "de</w>"], ["ma", "ket</w>"], ["20.", "8%,</w>"], ["ari", "ly</w>"], ["reflet", "cing</w>"], ["ma", "ar"], ["78.", "4%,</w>"], ["co", "v"], ["ma", "ins</w>"], ["on", "veil</w>"], ["co", "ss</w>"], ["17.", "3%</w>"], ["compi1", "ed</w>"], ["repor", "r"], ["pr", "rior</w>"], ["manage", "meent</w>"], ["5", "o"], ["si", "ve</w>"], ["n", "ge</w>"], ["25.", "9%,</w>"], ["a", ".</w>"], ["t", "ention</w>"], ["aut0", "mation</w>"], ["o", "er</w>"], ["21.", "1%,</w>"], ["25.", "7%,</w>"], ["ove", "e</w>"], ["au", "di"], ["cons", "sumer</w>"], ["flu", "cu"], ["finn", "cial</w>"], ["l", "t</w>"], ["v", "entory</w>"], ["14.", "3%</w>"], ["projec", "ti0ns,</w>"], ["ik", "ity</w>"], ["neg", "1i"], ["neg1i", "gible</w>"], ["ec", "h</w>"], ["sy", "sem"], [",2", "00,000</w>"], ["$2", "6."], ["ya", "er"], ["cu", "tomer</w>"], ["8", "2"], ["at", "ve</w>"], ["fl", "ects</w>"], ["0", ",000,000</w>"], ["ironve", "i1</w>"], ["31.", "7%,</w>"], ["a", "x"], ["ac", "orss</w>"], ["h", "anced</w>"], ["mar", "ke</w>"], ["ser", "v"], ["9", ",000000,</w>"], ["22.", "8%</w>"], ["oth", "erw"], ["im", "pro"], ["sec", "ti0n</w>"], ["mare", "k"], ["econ0m", "ics</w>"], ["struct", "ure"], ["79.", "9%,</w>"], ["21.", "5%</w>"], ["methodo", "lo9"], ["methodolo9", "y.</w>"], ["27.", "2%</w>"], ["ni", "dustry</w>"], ["ca", "ross</w>"], ["oev", "r</w>"], ["d", "winds</w>"], ["grow", "t</w>"], ["port", ",</w>"], ["ec", "ted</w>"], ["projec", "tion"], ["ea", "sed</w>"], ["16.", "3%</w>"], ["mon", "i"], ["$2,021", ",</w>"], ["wi", "yh</w>"], ["contin", "e"], ["contine", "ud</w>"], ["pro", "ximately</w>"], ["t", "form</w>"], ["on", "ductor</w>"], ["2,023", ".</w>"], ["c0mp", "onents</w>"], ["$2,023", ",</w>"], ["22.", "6%</w>"], ["ud", "er</w>"], ["capit", "ak</w>"], ["ri", "ly</w>"], ["l", "le</w>"], ["e", "ecuted</w>"], ["r", "ter</w>"], ["30.", "8%,</w>"], ["15.", "5%</w>"], ["32.", "4%,</w>"], ["infor", "ma"], ["s", "s.</w>"], ["p", "ital</w>"], ["fra", "me"], ["ind", "su"], ["tr", "y</w>"], ["to", "h"], ["ma", "agement</w>"], ["ha", "in</w>"], ["00", "00,000,</w>"], ["w", "s</w>"], ["s", "tic</w>"], ["report", "in"], ["sub", "-sah"], ["fact", "uring</w>"], ["en", "ent</w>"], ["wi", "l</w>"], ["fro", "mm</w>"], ["enti", "fied</w>"], ["art", "er</w>"], ["nt", ".</w>"], ["r", "c"], ["custo", "er</w>"], ["7", "1</w>"], ["s", "are</w>"], ["perform", "anc"], ["optim", "ist"], ["in", "9"], ["21.", "5%,</w>"], ["c", "su"], ["csu", "tomer</w>"], ["th", "see</w>"], ["impr0", "vement</w>"], ["c", "res"], ["sign", "i"], ["bro", "a"], ["aco", "ss</w>"], ["24.", "0%</w>"], ["sug", "g"], ["techno", "lo"], ["cp", "m"], ["other", "wi"], ["s", "cape</w>"], ["cre", "ased</w>"], ["ge", "w</w>"], ["ye", "a</w>"], ["gro", "o"], ["sc", "or"], ["i", "rements</w>"], ["loc", "ated</w>"], ["80.", "7%,</w>"], ["th", "si</w>"], ["industr", "i"], ["o", "or"], ["tw", "h</w>"], ["requi", "r"], ["comp", "are"], ["func", "tion"], ["es", "ence</w>"], ["dir", "ven</w>"], ["chall", "eng"], ["t", "um</w>"], ["projec", "ti0ns</w>"], ["lop", "ments.</w>"], ["b", "s.</w>"], ["lea", "di"], ["un", "ed</w>"], ["me", "ts</w>"], ["c", "ant</w>"], ["e", "er</w>"], ["rep", "or</w>"], ["pub", "l"], ["in", "o</w>"], ["ead", ",</w>"], ["peiro", "d</w>"], ["en", "ha"], ["comp0n", "ents.</w>"], ["str", "ial</w>"], ["c", "es</w>"], ["envir0n", "ment</w>"], ["str", "ng</w>"], ["n", "ued</w>"], ["c", "lined</w>"], ["or", "ds.</w>"], ["si0n", ".</w>"], ["sign", "if"], ["str", "no"], ["strno", "g</w>"], ["34.", "3%,</w>"], ["t", "j"], ["s", "ented</w>"], ["vic", "es</w>"], ["ec", "n"], ["dyn", "an"], ["ove", "er</w>"], ["prio", "or</w>"], ["s", "me</w>"], ["6", "00,000,</w>"], ["9", "ain</w>"], ["yst", "ems</w>"], ["oer", "ating</w>"], ["m", "ic</w>"], ["com", "ing</w>"], ["acr", "ss</w>"], ["$2", "5."], ["custom", "re</w>"], ["solu", "tio"], ["26.", "3%</w>"], ["fac", "tion</w>"], ["oper", "ai"], ["operai", "onal</w>"], ["ana1y", "tics</w>"], ["con", "r"], ["8", ",000000,</w>"], ["x", "</w>"], ["mar", "in</w>"], ["i", "vely</w>"], ["increa", "se</w>"], ["inc", "u"], ["incu", "de</w>"], ["requi", "rem"], ["dri", "iven</w>"], ["rpo", "ved</w>"], ["disci", "pl"], ["$3", "1."], ["9.", "5%</w>"], ["actu", "a1</w>"], ["next-", "ge"], ["10.", "5%</w>"], [",6", "6"], ["cu", "at"], ["si", "a</w>"], ["enh", "anc"], ["$27", "2,000,000,</w>"], ["5", "2%</w>"], ["inter", "p"], ["$8", "9."], ["28.", "1%</w>"], ["pri", "orr</w>"], ["b", "both</w>"], ["ti", "es.</w>"], ["plat", "for"], ["finan", "ical</w>"], ["17.", "2%</w>"], ["30.", "5%,</w>"], ["ri", "al</w>"], ["comp", "na"], ["chh", "anges</w>"], ["str", "p"], ["strp", "ng</w>"], ["11", "6%</w>"], ["20", "%</w>"], [",", "s</w>"], ["ep", "x"], ["dri", "ve"], ["regul", "tory</w>"], ["reg", "io"], ["maan", "gement</w>"], ["ve", "sted</w>"], ["w", "r</w>"], ["financ", "al</w>"], ["1.", "2%</w>"], ["tiv", "es</w>"], ["na", "jor</w>"], ["prov", "als.</w>"], ["95.", "6%,</w>"], ["re", "l"], ["5.", "2%</w>"], ["enr", "gy</w>"], ["ar", ".</w>"], ["ep", "enditure</w>"], ["96.", "7%,</w>"], ["str", "rong</w>"], ["9.", "4%</w>"], ["$2", "2."], ["a", "du"], ["d", "me"], ["dme", "and</w>"], ["du", "irng</w>"], ["ud", "ring</w>"], ["pub1ic", "ation.</w>"], ["ran", "e.</w>"], ["se", "ge"], ["6.", "0m,</w>"], ["x", "omp"], ["vel", "t"], ["27.", "3%</w>"], ["a", "counting</w>"], ["tim", "g</w>"], ["electr0n", "ics</w>"], ["epan", "sion,</w>"], ["elect", "ro"], ["regulator", "yy</w>"], ["materi", "al1y</w>"], ["op", "ments</w>"], ["eg", "n"], ["18.", "5%</w>"], ["$", "201"], ["po", "er"], ["cc", "ess</w>"], ["expendit", "u"], ["p", "period</w>"], ["integr", "at"], ["tii", "vely</w>"], ["pr", "gram</w>"], [",", "0000"], ["oer", "all</w>"], ["perio", ".</w>"], ["re1i", "able</w>"], ["f", "financial</w>"], ["11.", "2%</w>"], ["yea", "t</w>"], ["cus", "stomer</w>"], ["th", "es"], ["pro", "mo"], ["year-", "0ver"], ["year-0ver", "-year</w>"], ["9", "u"], ["ov", "ed</w>"], ["e", "ect</w>"], ["all", "yy</w>"], ["sa1", "es,</w>"], ["capab", "ili"], ["po", "te"], ["gu", "di"], ["gudi", "ance</w>"], ["op", "re"], ["posi", "tiv"], ["c", "j"], ["9", "5"], ["$8", ",200,000,</w>"], ["pric", "ig</w>"], ["organ", "iz"], ["inclu", "d"], ["rn", "ts</w>"], ["lu", "</w>"], ["y", "year</w>"], ["20.", "8%</w>"], ["y", "ing</w>"], ["n", "ue</w>"], ["0ut", "put</w>"], ["sem", "gent</w>"], ["8", "5"], ["t-", "generation</w>"], ["8", "9"], ["ti", "gated</w>"], ["wit", "j</w>"], ["sh", "re</w>"], ["17.", "7%</w>"], ["18.", "0%</w>"], ["2,0", "19.</w>"], ["h", "ea"], ["if", "nancial</w>"], ["16.", "4%</w>"], ["co", "ve"], ["cove", "sr</w>"], ["ve", "d.</w>"], ["thi", "is</w>"], ["j", "ustments</w>"], ["28.", "3%</w>"], ["co", "st"], ["r", "s.</w>"], ["8", "0"], ["framewor", "k"], ["5", "8</w>"], ["log", "i"], ["ei", "th</w>"], ["iliti", "es.</w>"], ["2,0", "2"], ["ti", "atives</w>"], ["op", "t"], ["$", "9%,</w>"], ["leader", "sh"], ["or", "b"], ["th", "i</w>"], ["posi", "t"], ["im", "ization.</w>"], ["$1", "7</w>"], ["contribu", "t"], ["throu", "h"], ["maj", "r</w>"], ["i", "in</w>"], ["marke", "ts"], ["sh", "ed</w>"], ["2,0", "21</w>"], ["enterpri", "s</w>"], ["h", "n</w>"], ["cu", "ts"], ["cuts", "omer</w>"], ["ac", "le</w>"], ["g", "growth</w>"], ["li", "ver</w>"], ["at", "l</w>"], ["6", "8</w>"], ["r", "ate"], ["n", "ers</w>"], ["5o", "lara</w>"], [",3", "00000,</w>"], ["opear", "tional</w>"], ["m", "r"], ["95.", "5%,</w>"], ["5", "3</w>"], ["ke", "ts</w>"], ["capit", "aal</w>"], ["h", "nology</w>"], ["in", "iitiatives</w>"], ["co", "t</w>"], ["maj", "o</w>"], ["currec", "ny</w>"], ["mn", "agement</w>"], ["r", "rates</w>"], ["4", "00000,</w>"], ["ment", "ts</w>"], ["mar", "ks</w>"], ["sion", "n</w>"], ["ana1y", "st</w>"], ["rs", "hip</w>"], ["m", "q"], ["infrastruct", "u"], ["ak", "ly</w>"], ["r", "all</w>"], ["er", "ing,</w>"], ["tio", "on</w>"], ["ey", "ar</w>"], ["ce", "t</w>"], ["thro", "gu"], ["throgu", "h</w>"], ["ve", "lopments</w>"], ["tt", "al</w>"], ["techn", "ica1</w>"], ["n", "ative</w>"], ["remain", "de</w>"], ["tim", "istic</w>"], ["$2", "1</w>"], ["d", "ance</w>"], ["ew", "orks</w>"], ["es", "d</w>"], ["reg", "inal</w>"], ["headcon", "ut</w>"], ["regu", "atory</w>"], ["f", "ri"], ["fri", "m</w>"], ["23.", "4%</w>"], ["auto", "mat"], ["3", "9"], ["ul", "l</w>"], ["fol", "l0"], ["23.", "8%</w>"], ["u", "in"], ["o", "unt</w>"], ["su", "c"], ["20.", "1%,</w>"], ["est", "line</w>"], ["5", "1%</w>"], ["remai", "ined</w>"], ["9", "lo"], ["marek", "ts.</w>"], ["cu", "on"], ["r", "tes</w>"], ["28.", "8%,</w>"], ["eas", "st</w>"], ["head", "inds</w>"], ["pro", "gr"], ["regul", "q"], ["mana", "ement</w>"], ["m", "om"], ["r", "ica</w>"], ["17.", "9%</w>"], ["operati", "ional</w>"], ["co", ",</w>"], ["agg", "ressi"], ["f", "nancial</w>"], ["macroe", "coon"], ["sto", "0d</w>"], ["20.", "4%,</w>"], ["n", "al</w>"], ["ct", "u"], ["renew", "ab"], ["34.", "6%,</w>"], ["18", "2%</w>"], ["27.", "4%</w>"], ["prove", "ments</w>"], ["attr", "it"], ["consu", "ner</w>"], ["co", "ts</w>"], ["en", "n</w>"], ["dyn", "ma"], ["regulator", "t</w>"], ["v", "als.</w>"], ["s", "es.</w>"], ["no", "vative</w>"], ["au", "dt</w>"], ["remainn", "ed</w>"], ["mar", "gn"], ["man", "gement</w>"], ["11", "7%</w>"], ["8", "000,000,</w>"], ["operatio", "al</w>"], ["2", ",000000,</w>"], ["accoun", "ti"], ["p", "wr"], ["pri", "mar"], ["fu", "1l</w>"], ["ti", "ion</w>"], ["reflect", "nig</w>"], ["un", "</w>"], ["26.", "6%</w>"], ["t", "y,</w>"], ["xo", "st</w>"], ["oer", "iod</w>"], ["ro", "y</w>"], ["5", "ah"], ["5ah", "aran</w>"], ["29.", "1%</w>"], ["manage", "met</w>"], ["$2,02", "1</w>"], ["94.", "5%,</w>"], ["en", "egy</w>"], ["$1", "5</w>"], ["repo", "or"], ["en", "x"], ["4", "4</w>"], ["re", "es"], ["25.", "5%</w>"], ["func", "tio"], ["8.", "3%</w>"], ["r", "h"], ["tic", "ipates</w>"], ["20.", "9%</w>"], ["aut0ma", "tion.</w>"], ["n", "ment.</w>"], ["21.", "4%</w>"], ["acr", "so"], ["acrso", "s</w>"], ["91.", "9%,</w>"], ["le", "e</w>"], ["perfor", "man"], ["reportin", "9.</w>"], ["indust", "y</w>"], ["year", "r</w>"], ["er", "ation</w>"], ["comp", "lin"], ["succ", "eas</w>"], ["increa", "se"], ["p", "si"], ["be", "1i"], ["be1i", "eved</w>"], ["n", "ths</w>"], ["pr", "dou"], ["prdou", "ct</w>"], ["-", "time</w>"], ["to", "ins</w>"], ["so", "u"], ["dn", "amics</w>"], ["n", "sumer</w>"], ["pu", "grad"], ["cont", "r"], ["6", ",000000,</w>"], ["da", "ata</w>"], ["ov", "rr</w>"], ["epr", "iod</w>"], ["i", "m</w>"], ["tu", "</w>"], ["con", "</w>"], ["quis", "ition</w>"], ["peru", "od</w>"], ["88.", "1%,</w>"], ["up", "gra"], ["optimiz", "at"], ["18.", "1%</w>"], ["24.", "1%,</w>"], ["succ", "cess</w>"], ["manage", "ement</w>"], ["mat", "er"], ["optimist", "ci</w>"], ["pe", "iod</w>"], ["s0", "lely</w>"], ["n", "an"], ["nan", "agement</w>"], ["32.", "2%,</w>"], ["ino", "al</w>"], ["dyan", "mics</w>"], ["89.", "0%,</w>"], ["strat", "ge"], ["19.", "1%</w>"], ["i", "usly</w>"], ["1.", "6%</w>"], ["25.", "9%</w>"], ["s", "perior</w>"], ["ment", "a</w>"], ["20.", "7%</w>"], ["eng", "g"], ["rep0r", "ting.</w>"], ["ap", "prove"], ["incre", "as"], [".", "d</w>"], ["initi", "at"], ["27.", "2%,</w>"], [",00", ",</w>"], ["follo", "win9</w>"], ["8", "4"], ["n", "ch"], ["refl", "w"], ["95.", "0%,</w>"], ["gu", "</w>"], ["us", "t</w>"], ["p", "liers.</w>"], ["r", "pe"], ["gro", "twh</w>"], ["i", "an</w>"], ["requir", "meents</w>"], ["us", "iness</w>"], ["x", "ustomer</w>"], ["9", ",000,000</w>"], ["83.", "0%,</w>"], ["groo", "wth</w>"], ["sem", "i"], ["wn", "ts</w>"], ["eer", "ing,</w>"], ["comp0n", "ents</w>"], ["majo", "or</w>"], ["at", "de</w>"], ["er", "ly</w>"], ["31.", "9%</w>"], ["26.", "4%,</w>"], ["25.", "1%</w>"], ["meth0", "do"], ["30.", "1%,</w>"], ["grw", "e</w>"], ["a", "d</w>"], ["d", "w"], ["ect", "ors</w>"], ["ain", "s</w>"], ["24.", "2%,</w>"], ["$2", "3."], ["14.", "0%</w>"], ["at", "t"], ["ren", "ained</w>"], ["bu", "si"], ["op", "e"], ["negli", "g"], ["1", "n</w>"], ["seg", "m"], ["unti", "</w>"], ["4", ",000,000</w>"], ["q", "in</w>"], ["intro", "du"], ["7.", "7%</w>"], ["24.", "8%,</w>"], ["ment", "ss</w>"], ["h", "usb"], ["husb", ".</w>"], ["en9ineer", "ing</w>"], ["g", "ure</w>"], ["curr", "n"], ["$3", "0."], ["8", ",</w>"], ["flexib", "ility"], ["1", ",000000,</w>"], ["so", "le"], ["h", "e"], ["b", "to"], ["cust", "mer</w>"], ["ac", "</w>"], ["pre", "iod</w>"], ["pur", "p0"], ["ab", "ou"], ["gr", "e</w>"], ["$8", "6"], ["9", "6"], ["asi", "on</w>"], ["complianc", "</w>"], ["gro", "th</w>"], ["a", "ross</w>"], ["ac", "ted</w>"], ["fin", "a"], ["fina", "ancial</w>"], ["s", "subject</w>"], ["ul", "ess</w>"], ["11.", "3%</w>"], ["al", "e</w>"], ["mea", "sur"], ["4", "00,000,</w>"], ["initi", "ativ"], ["1.", "7%</w>"], ["rem", "s"], ["ab", "ility</w>"], ["r", "a</w>"], ["c", "customer</w>"], ["ib", "ility.</w>"], ["mon", "yh"], ["monyh", "s</w>"], ["exp", "enn"], ["expenn", "diture</w>"], ["wr", "s</w>"], ["port", ".</w>"], ["s", "n</w>"], ["81.", "1%,</w>"], ["ser", "iv"], ["seriv", "ce</w>"], ["ic", "ial</w>"], ["finn", "acial</w>"], ["it", "roduced</w>"], ["compra", "ed</w>"], ["peroid", ".</w>"], ["gl0", "ssary</w>"], ["presen", "ec</w>"], ["y", "s.</w>"], ["3", ",</w>"], ["so", "cre"], ["socre", "s.</w>"], ["ud", "ance</w>"], ["4", "4%</w>"], ["ye", "ear</w>"], ["dev", "le"], ["managem", "wnt</w>"], ["proac", "t"], ["23.", "1%,</w>"], ["f", "eo"], ["feo", "m</w>"], ["ener", "y"], ["enery", "g</w>"], ["22.", "2%</w>"], ["midd", "1e</w>"], ["4", "5%</w>"], ["ic", "itly</w>"], ["fi", "rm</w>"], ["env", "ir"], [",3", "6"], ["6", ",</w>"], ["ob", "er</w>"], ["cuat", "omer</w>"], ["q", "sia</w>"], ["82.", "7%,</w>"], ["appr", "vo"], ["over", "r</w>"], ["$1", "4.5%</w>"], ["ec", "p"], ["interp", "ret"], ["interpret", "in9</w>"], ["manag", "gement</w>"], ["3", "000k,</w>"], ["gro", "pu"], ["gropu", "</w>"], ["cso", "ts</w>"], ["oc", "er</w>"], ["thr0", "u"], ["ct", "ed</w>"], ["develpo", "ment</w>"], ["pr", "p"], ["nx", "et</w>"], ["26.", "0%,</w>"], ["w", "thin</w>"], ["co", "ves</w>"], ["capab", "i"], ["b", "</w>"], ["clo", "u"], ["uctu", "re"], ["ucture", ".</w>"], ["a", "tive"], ["l", "go"], ["re", "upr"], ["reupr", "chase</w>"], ["re", "qu"], ["pose", "dd</w>"], ["12", "4%</w>"], ["ha", "se</w>"], ["cybers", "ecur"], ["sy", "tems</w>"], ["ea", "ast</w>"], ["oc", "m"], ["fi9", "ure"], ["fi9ure", "s.</w>"], ["n", "sion,</w>"], ["hi", "es</w>"], ["marr", "kets.</w>"], ["posi", "ti0n</w>"], ["expce", "ts</w>"], ["no", "tr"], ["p", "to"], ["re", "ctors</w>"], ["am", "rket</w>"], ["ra", "es</w>"], ["at", "ri"], ["robu", "s</w>"], ["con", "p"], ["rev", "i"], ["6", "2</w>"], ["mer", "id"], ["robu", "ts</w>"], ["orn", "is</w>"], ["81.", "6%,</w>"], ["sege", "mnt</w>"], ["dec", "ined</w>"], ["26.", "3%,</w>"], ["bo", "d"], ["infrast", "ucture</w>"], ["in", "distr"], ["indistr", "y</w>"], ["$7", "8."], ["p", "ior</w>"], ["head", "coun"], ["$1", "6."], ["bio", "t"], ["next-gener", "at"], ["i", "marily</w>"], ["chall", "en"], ["mul", "t"], ["pr", "iod</w>"], ["benchmar", "k"], ["hub", ".s</w>"], ["32.", "0%,</w>"], ["be", "o"], ["l", "w</w>"], ["ener", "y</w>"], ["$2", "1."], ["9", "m,</w>"], ["31.", "8%</w>"], ["enterpris", "r</w>"], ["89.", "6%,</w>"], ["throu", "g</w>"], ["me", "p"], ["24.", "1%</w>"], ["de", "ma"], ["uni", "</w>"], ["78.", "9%,</w>"], ["accoun", "n"], ["on", "1y.</w>"], ["0rgan", "ization</w>"], ["optimis", "ti"], ["2", "5%</w>"], ["contin", "ud</w>"], ["condi", "ti0ns.</w>"], ["v", "oerall</w>"], ["org", "anc"], ["thh", "rough</w>"], ["$19", "3,000,000,</w>"], ["operat", "ng</w>"], ["aran", "tee</w>"], ["cap", "ut"], ["caput", "al</w>"], ["lands", "c"], ["thes", "se</w>"], ["region", "la</w>"], ["in", "x"], ["organic", "allyy</w>"], ["hir", "nig</w>"], ["bot", "th</w>"], ["n", ",</w>"], ["manage", "mennt</w>"], ["reven", "u"], ["ener", "g"], ["energ", "yy</w>"], ["regu", "la"], ["91.", "6%,</w>"], ["15.", "3%</w>"], ["unit", ".</w>"], ["27.", "0%,</w>"], ["eng", "a"], ["21.", "9%</w>"], ["f", "uring</w>"], ["sok", "utions</w>"], ["ectron", "ics</w>"], ["e", "l</w>"], ["cha", "inn</w>"], ["e1ectron", "ics.</w>"], ["h", "tese</w>"], ["p1", "ease</w>"], ["9", "4"], ["00", "k</w>"], ["am", "t"], ["gro", "wr"], ["growr", "h</w>"], ["aco", "c"], ["28", "</w>"], ["negli", "9"], ["negli9", "ible</w>"], ["thh", "is</w>"], ["o", "ds</w>"], ["esn", "ure</w>"], ["et", "ch"], ["7", "5"], ["fi", "gr"], ["figr", "u"], ["figru", "es</w>"], ["dur", "ng</w>"], ["unti", "s.</w>"], ["ti", "tive</w>"], ["pot", "en"], ["ur", "sued</w>"], ["fin", "a1</w>"], ["indusr", "y</w>"], ["28", ",000,000,</w>"], ["im", "pr0v"], ["pro", "d"], ["9", "8"], ["14", ",</w>"], ["geogr", "ap"], ["geograp", "h"], ["th", "h</w>"], ["di", "sup"], ["disup", "tions</w>"], ["fo", ",</w>"], [",", "r</w>"], ["4", "9</w>"], ["regulato", "ory</w>"], ["peri", "d</w>"], ["3", "2%</w>"], ["a", "e"], ["opper", "ating</w>"], ["g", ",</w>"], ["sc", "ro"], ["technolo9", "ies</w>"], ["man", "sgement</w>"], ["biome", "di"], ["surpass", "in9</w>"], ["strict", "1y</w>"], ["deve", "lo"], ["so", "ur"], ["er", "rs</w>"], ["ti", "fied</w>"], ["in", "tiatives</w>"], ["ib", "s</w>"], ["ree", "venue</w>"], ["23.", "3%,</w>"], ["m", "ization.</w>"], ["90.", "4%,</w>"], ["supp", "ky</w>"], ["porr", "tfolio</w>"], ["improve", "m"], ["v", "ial</w>"], ["f", "ni"], ["fni", "ancial</w>"], ["c0nt", "act</w>"], ["tion", "n</w>"], ["ex", "chan"], ["e", "ing</w>"], ["pso", "ed</w>"], ["techno", "l"], ["mitig", "atd</w>"], ["ot", "p"], ["otp", "imization.</w>"], ["15.", "6%</w>"], ["adjust", "m"], ["d", "during</w>"], ["33.", "2%,</w>"], ["fig", "i"], ["figi", "res</w>"], ["throuh", "g</w>"], ["90.", "3%,</w>"], ["automa", "tio</w>"], ["as", "me</w>"], ["rat", "ess</w>"], ["87.", "1%,</w>"], ["$5", "0"], ["0", "v"], ["$2", "8."], ["estab", "li"], ["su", "be"], ["sube", "j"], ["subej", "ct</w>"], ["i", "ro"], ["ci", "a</w>"], ["cha", "i</w>"], ["34.", "9%,</w>"], ["ve", "ys,</w>"], ["cur", "ity</w>"], ["30.", "8%</w>"], ["c", "a</w>"], ["s", "tics</w>"], ["cus", "ro"], ["cusro", "mer</w>"], ["rate", "a</w>"], ["k", "ined</w>"], ["2,02", "2.</w>"], ["integra", "ti0n</w>"], ["cah", "nge</w>"], ["pres", "ent"], ["guid", "anc"], ["lg", "istics</w>"], ["nt", "um</w>"], ["cop", "any</w>"], ["y", "on</w>"], ["es", "ure</w>"], ["vy", "ingg</w>"], ["hc", "ain</w>"], ["reopr", "t</w>"], ["disr", "pu"], ["disrpu", "tions</w>"], ["s", "st"], ["sst", "ems</w>"], ["are", ".</w>"], ["d", "ay"], ["day", "a</w>"], ["unn", "it</w>"], ["re", "h"], ["reh", "ulatory</w>"], ["continu", "ef</w>"], ["22.", "4%,</w>"], ["mis", "sionn</w>"], ["d", "tr"], ["d", "est</w>"], ["egr", "ation,</w>"], ["whi", "ke</w>"], ["w", "b"], ["26.", "0%</w>"], ["makre", "t</w>"], ["lic", "ation.</w>"], ["employe", "ee</w>"], ["al", "cyon</w>"], ["r", "uptions</w>"], ["supp1i", "ers</w>"], ["provid", "e</w>"], ["u", "mer</w>"], ["regu", "al"], ["regual", "tory</w>"], ["ne", "s.</w>"], ["co", "ver"], ["r", "fl"], ["rfl", "ect</w>"], ["operatio", "onal</w>"], ["t", "g"], ["h0", "we"], ["h0we", "ver</w>"], ["fl", "uct"], ["managem", "net</w>"], ["9", "3</w>"], ["fu", "1"], ["fu1", "l-"], ["ms", "jor</w>"], ["il", "l</w>"], ["deve", "lp"], ["busin", "ss</w>"], ["32.", "9%</w>"], ["ur", "</w>"], ["18.", "9%</w>"], ["5", "00,000,</w>"], ["grow", "t"], ["foll0", "wing</w>"], ["innov", "atve</w>"], ["w", "s.</w>"], ["11.", "6%</w>"], ["ev", "</w>"], ["ma", "erica</w>"], ["ic", "al1y</w>"], ["uin", "t</w>"], ["r", "xpenditure</w>"], ["acro", "o"], ["acroo", "ss</w>"], ["pri", "r</w>"], ["33.", "9%</w>"], ["uni", "it</w>"], ["o", "operational</w>"], ["p", "ates</w>"], ["if", "gures</w>"], ["multip", "ke</w>"], ["s", "segment</w>"], ["d", "differentiated</w>"], ["dur", "nig</w>"], ["enc", "ies.</w>"], ["offic", "ia1</w>"], ["r", "mea"], ["marg", "ib"], ["regulq", "tory</w>"], ["r", "gulatory</w>"], ["unit", ".s</w>"], ["m", "markets.</w>"], ["expce", "ted</w>"], ["c", "ent"], ["3", "8</w>"], ["it", "1y</w>"], ["deve", "e"], ["op", "ti"], ["industr", "yy</w>"], ["ctu", "ations</w>"], ["17.", "5%</w>"], ["85.", "8%,</w>"], ["mann", "agement</w>"], ["oper", "ay"], ["2", "9%</w>"], ["20.", "5%,</w>"], ["28.", "2%</w>"], ["ic", "es</w>"], ["reg", "latory</w>"], ["se", ".</w>"], ["92.", "4%,</w>"], ["do", "c"], ["ha", "dwinds</w>"], ["0n", "ly.</w>"], ["head", "w"], ["re", "ulatory</w>"], ["78.", "6%,</w>"], ["wh", "0m</w>"], ["r", "vice</w>"], ["h", "wen</w>"], ["unl", "esss</w>"], ["4", "000000,</w>"], ["pre", "iod.</w>"], ["w", "j"], ["17.", "4%</w>"], ["provi", "de"], ["it", "y.</w>"], ["r", "f"], ["in", "ancial</w>"], ["l0", "9"], ["rn", "t</w>"], ["n", "uder</w>"], ["indu", "tsr"], ["indutsr", "y</w>"], ["pinnac", "lle</w>"], ["pr", "r"], ["n", "ductor</w>"], ["d", "ring</w>"], ["peri", "of</w>"], ["incident", "al</w>"], ["21.", "0%</w>"], ["d0cu", "ment.</w>"], ["av", "ross</w>"], ["man", "aagement</w>"], ["$4", ",300,000,</w>"], ["moni", "to"], ["if", "ic</w>"], ["es", "ented</w>"], ["sysem", "s</w>"], ["c", "ting</w>"], ["nex", "-"], ["ac", "pital</w>"], ["te", "port</w>"], ["a", "o"], ["produc", "</w>"], ["m", "rket</w>"], ["the", "de</w>"], ["v", "on"], ["y", "b"], ["er", "flects</w>"], ["en", "yer"], ["enyer", "prise</w>"], ["figu", "es</w>"], ["u", "on</w>"], ["geogr", "aphi"], ["manage", "mnt</w>"], ["an", "ge</w>"], ["mar", "gn</w>"], ["str", "ies</w>"], ["curr", "en"], ["r", "ct</w>"], ["82.", "0%,</w>"], ["stro", "g</w>"], ["ac", "tion,</w>"], ["$39", "7,000,000,</w>"], ["rou", "b"], ["roub", "st</w>"], ["28.", "0%,</w>"], ["emn", "t</w>"], ["pa", "9e</w>"], ["com", "o"], ["15.", "8%</w>"], ["28.", "5%</w>"], ["str", "on</w>"], ["msr", "ket</w>"], ["develop", "p"], ["developp", "ment</w>"], ["nexa", "ore</w>"], ["sustainab", "ili"], ["jud9", "ment</w>"], ["rev", "venue</w>"], ["manag", "enent</w>"], ["w", "will</w>"], ["p", "tal</w>"], ["marke", "tt</w>"], ["co", "s</w>"], ["85.", "3%,</w>"], ["lead", "ers"], ["leaders", "hi"], ["93.", "6%,</w>"], ["er", "mained</w>"], ["h", "l"], ["termino", "1ogy</w>"], ["u", "q"], ["6", "6%</w>"], ["s", "ent.</w>"], ["2", "00,000,</w>"], ["g", "1"], ["g1", "ob"], ["23.", "5%</w>"], ["pee", "iod</w>"], ["8", ",000,000</w>"], ["yea", ",</w>"], ["$8", "1."], ["i", "ers.</w>"], ["ai", "l</w>"], ["ful", "1"], ["ful1", "-time</w>"], ["remain", "edd</w>"], ["con", "nsumer</w>"], ["at", "ins</w>"], ["8", "00000,</w>"], ["und", "e</w>"], ["quar", "rter</w>"], ["clar", "ific"], ["with", "o"], ["develop", "n"], ["it", "s"], ["22.", "0%</w>"], ["iti", "vely</w>"], ["p", "prior</w>"], ["30.", "5%</w>"], ["epr", "iod.</w>"], ["gu", "res.</w>"], ["ahea", ","], ["ahea,", "d</w>"], ["ab", "ility,</w>"], ["at", "form</w>"], ["87.", "6%,</w>"], ["tech", "on"], ["in", "on"], ["inon", "vative</w>"], ["yaer", ",</w>"], ["t", "y.</w>"], ["n", "ed</w>"], ["enter", "p"], ["cus", "omer</w>"], ["informa", "ti0n</w>"], ["8", "8%</w>"], ["ener", "g</w>"], ["indus", "ti"], ["nt", "ory</w>"], ["team", "ms</w>"], ["ent", "r"], ["broa", "edr</w>"], ["$3", "11"], ["$2", "5</w>"], ["op", "eer"], ["c", "ility</w>"], ["consum", "r</w>"], ["j", "ub"], [",", "%</w>"], ["refl", "ce"], ["manag", "meent</w>"], ["18.", "4%</w>"], ["man", "ah"], ["manah", "ement</w>"], ["approve", "dd</w>"], ["no", "te"], ["expan", "so"], ["s", "sion</w>"], ["u", "chase</w>"], ["geo", "gra"], ["lu", "d</w>"], ["mark", "t</w>"], ["a", "e</w>"], ["po", "o"], ["21.", "0%,</w>"], ["ct", "ure</w>"], ["u", "idance</w>"], ["tw", "d</w>"], ["sett", "in9"], ["26", "4%</w>"], ["19.", "9%</w>"], ["9.", "7%</w>"], ["dat", "aa</w>"], ["h", "trough</w>"], ["operati0n", "a1</w>"], ["i", "d</w>"], ["pr", "sued</w>"], ["tri", "tion</w>"], ["29.", "5%,</w>"], ["be", "lo"], ["27.", "1%,</w>"], ["un", "nit"], ["unnit", "s.</w>"], ["approva1", "s</w>"], ["se", "ments</w>"], ["g", "y.</w>"], ["re", "oor"], ["infrastru", "c"], ["exp", "end"], ["st", "ments</w>"], ["driv", "ven</w>"], ["0", "lu"], ["34.", "4%,</w>"], ["d", "ta"], ["dta", "a</w>"], ["dr", "vi"], ["drvi", "en</w>"], ["seg", "mennts</w>"], ["11.", "9%</w>"], ["d", "ership</w>"], ["with", "i</w>"], ["2", "6%</w>"], ["26.", "8%,</w>"], ["whi", "ile</w>"], ["potenti", "la</w>"], ["headwn", "ds</w>"], ["ineer", "ing,</w>"], ["facili", "yt</w>"], ["rr", "ency</w>"], ["$4", "18"], ["l", "s.</w>"], ["ded", "d</w>"], ["en", "sr"], ["29.", "4%</w>"], ["conti", "uned</w>"], ["sub-", "5aharan</w>"], ["ma", "a"], ["maa", "jor</w>"], ["reopr", "ted</w>"], ["27.", "4%,</w>"], ["it", "ve</w>"], ["wih", "le</w>"], ["economic", "s..</w>"], ["po", "ed</w>"], ["y", "ion</w>"], ["deli", "vre"], ["delivre", "y</w>"], ["10.", "1%</w>"], ["bo", "ar"], ["pr0", "jec"], ["pr0jec", "tions</w>"], ["differ", "ent"], ["89.", "5%,</w>"], ["29.", "9%</w>"], ["er", "main</w>"], ["28", "2%</w>"], ["91.", "2%,</w>"], ["l", "ei"], ["pursu", "edd</w>"], ["cob", "tinued</w>"], ["eng", "ag"], ["condi", "tio"], ["0", ",000000,</w>"], ["$", "3.7%</w>"], ["oth", "h"], ["$8", "3."], ["figure", "es</w>"], ["ya", "er</w>"], ["trans", "lat"], ["am", "ic</w>"], ["u", "stry</w>"], ["marke", "t"], ["uni", "s.</w>"], ["ear", ".</w>"], ["b", "s"], ["cont", "nued</w>"], ["30.", "2%</w>"], ["2,0", "19,</w>"], ["ex", "o"], ["1", ",0"], ["environ", "m"], ["ann", "cial</w>"], ["in", "ud"], ["23.", "1%</w>"], ["n", "ial</w>"], ["sc", "ross</w>"], ["wih", "out</w>"], ["acquis", "it"], ["ope", "ating</w>"], ["neglig", "ib"], ["5", ",000,000</w>"], ["16.", "6%</w>"], ["perfor", "mn"], ["ver", "si0n.</w>"], ["so", "t"], ["sot", "f"], ["pro", "duct"], ["product", "t</w>"], ["su", "ject</w>"], ["24", ",000,000</w>"], ["found", "d</w>"], ["crest", "li"], ["head", "co"], ["proac", "tive"], ["t", "age"], ["tage", "t</w>"], ["s", "d</w>"], ["tj", "is</w>"], ["en", "et"], ["a", "id"], ["men", "st</w>"], ["competi", "tiv"], ["men", "s</w>"], ["et", "ams</w>"], ["currn", "cy</w>"], ["figu", "ures</w>"], ["b", "r"], ["bio", "tec"], ["dec", "clined</w>"], ["re9", "u"], ["$2", "3</w>"], ["or", "t</w>"], [",3", "00,000</w>"], ["i", "industry</w>"], ["gn", "ment.</w>"], ["subjec", "tt</w>"], ["engage", "m"], ["ec0nom", "ics</w>"], ["f", "pr"], ["faci", "ity</w>"], ["moment", "tum</w>"], ["c", "f0"], ["cf0", ",</w>"], ["servi", "ec</w>"], ["rat", "rs</w>"], ["purp0", "ses.</w>"], ["oc", "ated</w>"], ["26.", "9%,</w>"], ["co", "0,</w>"], ["rat", "s</w>"], ["000", "k</w>"], ["$", "8.2%</w>"], ["head", "q"], ["headq", "inds</w>"], ["c", "mp"], ["an", "s</w>"], ["intern", "ak</w>"], ["84.", "5%,</w>"], ["v", "omp"], ["th", "o"], ["2,0", "22</w>"], ["t", "egy</w>"], ["de", "di"], ["repot", "r</w>"], ["er", "gy</w>"], ["14", "8%</w>"], ["so", "lar"], ["f", "to"], ["dec", "li"], ["fa", "x"], ["stro", "gn</w>"], ["at", "wd</w>"], ["g", ".</w>"], ["produ", "t</w>"], ["1", ",000,000</w>"], ["94.", "8%,</w>"], ["oc", "ntinued</w>"], ["m", "intaining</w>"], ["7", "00000,</w>"], ["custom", "eer</w>"], ["34.", "7%,</w>"], ["pr", "org"], ["prorg", "am</w>"], ["ci", "plined</w>"], ["posi", "tio"], ["so1u", "tions.</w>"], ["y", "ar,</w>"], ["expan", "si"], ["continu", "es</w>"], ["rems", "ined</w>"], ["$3", "4."], ["r", "revenue</w>"], ["91.", "5%,</w>"], ["ex", "x"], ["7.", "0m</w>"], ["th", "us</w>"], ["tri", "al</w>"], ["p", "p"], ["headwin", "d"], ["1.", "3%</w>"], ["u", "unt</w>"], ["cha", "b"], ["2,0", "20,</w>"], ["year", ",,</w>"], ["outp", "e"], ["urc", "ing</w>"], ["ent", "epr"], ["entepr", "rise</w>"], ["repor", "ti"], ["ben", "e</w>"], ["inc", "ra"], ["21.", "2%</w>"], ["expen", "di"], ["ic", "n"], ["lat", "0ry</w>"], ["20.", "2%</w>"], ["not", "ted.</w>"], ["sup", "por"], ["suppor", "y,</w>"], ["i", "industries</w>"], ["f", "figure</w>"], ["-", "7.3%</w>"], ["fi", "ug"], ["0", "ff"], ["0ff", "icial</w>"], ["compli", "annce</w>"], ["6.", "$1%</w>"], ["esti", "ma"], ["3", "m,</w>"], ["enterpr", "rise</w>"], ["continu", "ued</w>"], ["ti", "buting</w>"], ["ap", "r"], ["ne", "t"], ["net", "x</w>"], ["v", "iously</w>"], ["te", "ly</w>"], ["leader", "si"], ["posi", "ively</w>"], ["$23", "8%</w>"], ["3", "00,000</w>"], ["gi", "udance</w>"], ["com", "any</w>"], ["i", "er</w>"], ["ri", "buting</w>"], ["devle", "op"], ["mp", "loyee</w>"], ["to", "aled</w>"], ["mark", "te</w>"], ["con", "id"], ["31.", "4%</w>"], ["$8", "8."], ["p", "urchase</w>"], ["$49", "9,000,000,</w>"], ["96.", "0%,</w>"], ["$6", ",400,000,</w>"], [",2", "00"], ["ca", "ap"], ["te", "hc"], ["us", "l</w>"], ["9", "0"], ["indu", "d"], ["plat", "firm</w>"], ["ron", "ment.</w>"], ["of", "unded</w>"], ["missi", "ion</w>"], ["oth", "rw"], ["othrw", "ise</w>"], ["solu", "ti0ns.</w>"], ["e", "entrants</w>"], ["is", "ee</w>"], ["$39", "3,000,000,</w>"], ["flexibili", "y.</w>"], ["27.", "9%,</w>"], ["broad", "err</w>"], ["apprvo", "ed</w>"], ["31.", "9%,</w>"], ["emis", "sion"], ["ecp", "n"], ["om", "ics</w>"], ["h", "en</w>"], ["t", "es"], ["ensu", "ree</w>"], ["$14", "6"], ["whi", "l</w>"], ["m", "market</w>"], ["li", "ties.</w>"], ["platfor", "rm</w>"], ["k", "in"], ["compna", "y</w>"], ["$9", "7"], ["$25", "1,000,000,</w>"], ["$1", "2.0%</w>"], ["f0r", ",</w>"], ["j", "o"], ["ec", "tions,</w>"], ["ce", "on"], ["n", "next-generation</w>"], ["1", "20%</w>"], ["fin", "am"], ["finam", "cial</w>"], ["ti", "es</w>"], ["clou", "f</w>"], ["infra", "srt"], ["su", "v"], ["infrast", "tr"], ["develpo", "ments</w>"], ["comp", "et"], ["rem", "mained</w>"], ["sn", "ce</w>"], ["msr", "gin</w>"], ["agreem", "nets</w>"], ["00", "%</w>"], ["9", "000k,</w>"], ["servi", "ice</w>"], ["32.", "2%</w>"], ["25.", "6%,</w>"], ["np", "ted.</w>"], ["thro", "ough</w>"], ["ativ", "w</w>"], ["in", "it"], ["produc", "y</w>"], ["repurch", "hase</w>"], ["empl0", "yed</w>"], ["gl0", "bally</w>"], ["i", "plined</w>"], ["peiro", "d.</w>"], ["ro", "economic</w>"], ["ti", "y</w>"], ["public", "ati0n.</w>"], ["s", "sytems</w>"], ["ocmp", "arative</w>"], ["am", "ic,</w>"], ["seg", "nent</w>"], ["q", "ted</w>"], ["sourc", "cing</w>"], ["86.", "5%,</w>"], ["er", "gulatory</w>"], ["q", "p"], ["r", "ics</w>"], ["hiri", "gn</w>"], ["pero", "od</w>"], ["disrup", "tion"], ["manag", "w"], ["managw", "ment</w>"], ["nex", "</w>"], ["up", "oming</w>"], ["ta", "es</w>"], ["21.", "7%</w>"], ["26.", "9%</w>"], ["s0urc", "es</w>"], ["ev", "d</w>"], ["aran", "teed.</w>"], ["g", "ree"], ["gree", "w</w>"], ["attri", "tio"], ["app", "proved</w>"], ["19", "7%</w>"], ["27", "5%,</w>"], ["financi", "all</w>"], ["g", "a"], ["tr", "h"], ["trh", "ough</w>"], ["outp", "eer"], ["outpeer", "form</w>"], ["mea", "su"], ["atri", "tion</w>"], ["opit", "mistic</w>"], ["$42", "4,000,000,</w>"], ["31.", "2%</w>"], ["adj", "yst"], ["adjyst", "ments</w>"], ["innov", "aive</w>"], ["23", "6%</w>"], ["79.", "5%,</w>"], ["oer", "iod.</w>"], ["ex", "c"], ["attri", "tio</w>"], ["th", "out</w>"], ["$1", "3."], ["conver", "si"], ["11", "9%</w>"], ["th", "rp"], ["thrp", "ugh</w>"], ["4", "00,000</w>"], ["cons", "mu"], ["consmu", "er</w>"], ["93.", "0%,</w>"], ["res", "sed.</w>"], ["2", "7%</w>"], ["bod", "ise</w>"], ["unl", "less</w>"], ["compra", "ative</w>"], ["$16.", "1%</w>"], ["reflec", "timg</w>"], ["tipn", ",</w>"], ["er", "y</w>"], ["inve", "t"], ["invet", "sed</w>"], ["f", "identi"], ["24.", "2%</w>"], ["90.", "6%,</w>"], ["benchmark", "ks,</w>"], ["$4", ",400,000,</w>"], ["expand", "in</w>"], ["deve", "k"], ["tin", "f</w>"], ["intern", "la</w>"], ["cont", "tinued</w>"], ["g", "re"], ["w", "w</w>"], ["$", "7."], ["flexib", "il"], ["a", "ance</w>"], ["egn", "aged</w>"], ["tot", "a"], ["$2", "9."], ["hub", ".</w>"], ["28.", "6%,</w>"], ["sign", "ficant</w>"], ["us", "ccess</w>"], ["mep", "loyee</w>"], ["engage", "mennt</w>"], ["an", "l"], ["it", "ernal</w>"], ["pos", "tiively</w>"], ["cust", "tomer</w>"], ["r", "mained</w>"], ["accounn", "ting</w>"], ["tt", "en</w>"], ["i", "tion.</w>"], ["optimisti", "ic</w>"], ["a1", "s</w>"], ["4", "8%</w>"], ["ur", "terly</w>"], ["o", "logy</w>"], ["mo", "v"], ["rat", "egy</w>"], ["22.", "8%,</w>"], ["perfor", "mann"], ["performann", "ce</w>"], ["midd", "dle</w>"], ["gr", "up</w>"], ["landsc", "cape</w>"], ["fram", "works</w>"], ["stra", "egic</w>"], ["9u", "arantee</w>"], ["guid", "ane</w>"], ["tai", "ve</w>"], ["opre", "ating</w>"], ["conti", "buting</w>"], ["cj", "ain</w>"], ["expen", "id"], ["expenid", "ture</w>"], ["a", "ard</w>"], ["dire", "c"], ["direc", "ctors</w>"], ["atr", "get</w>"], ["manufactur", "nig</w>"], ["87.", "9%,</w>"], ["regul", "latory</w>"], [",7", "9"], ["r", "ational</w>"], ["execu", "t"], ["$4.", "0%</w>"], ["on", "9</w>"], ["82.", "4%,</w>"], ["prov", "o"], ["provo", "der</w>"], ["el", "e"], ["th", "se</w>"], ["29.", "5%</w>"], ["includ", "de</w>"], ["$8", "3"], ["dur", "ingg</w>"], ["expenditu", "ure</w>"], ["comap", "ny</w>"], ["east", "t</w>"], ["custom", "et</w>"], ["os", "lutions</w>"], ["s", "crepanc"], ["n", "w"], ["ur", "a,</w>"], ["ri", "dian</w>"], ["91.", "8%,</w>"], ["26.", "4%</w>"], ["cah", "in</w>"], ["7", "4</w>"], ["di", "gn</w>"], ["13", "9%</w>"], ["$15", ",900,000,</w>"], ["petio", "d.</w>"], [",2", "8"], ["unde", "t</w>"], ["0", "k"], ["0k", "a"], ["u", "h"], ["25", "0%</w>"], ["pu", "ursued</w>"], ["$18", "100,000,</w>"], ["dedic", "aetd</w>"], ["ch", "nologies</w>"], ["hea", "ad"], ["95.", "1%,</w>"], ["support", "es</w>"], ["impr0v", "ed</w>"], ["prod", "duct</w>"], ["$11", ",400,000,</w>"], ["ap", "rpoved</w>"], ["tot", "ak</w>"], ["solu", "tin"], ["dur", "ong</w>"], ["fac", "lity</w>"], ["25.", "4%</w>"], ["st", ".</w>"], ["resolu", "ti0n</w>"], ["29.", "0%,</w>"], ["cf", "fo,</w>"], ["co", "dt</w>"], ["78.", "5%,</w>"], ["yea", ",r</w>"], ["e", "expansion,</w>"], ["cap", "tial</w>"], ["f", "gi"], ["fgi", "ures</w>"], ["suppli", "er"], ["commit", "t"], ["11.", "7%</w>"], ["er", "sions</w>"], ["enterpri", "e</w>"], ["c1", "ar"], ["c1ar", "ifications</w>"], ["enh", "an"], ["enhan", "ec"], ["enhanec", "d</w>"], ["o", "political</w>"], ["pro", "m"], ["re", "q"], ["u", "rements</w>"], ["suppo", "or"], ["outper", "fomr</w>"], ["contro", "sl</w>"], ["c", "pa"], ["r", "ly</w>"], ["l", "n"], ["dur", "inf</w>"], ["ic", "ng</w>"], ["oc", "nt"], ["ocnt", "rols</w>"], ["to", "duced</w>"], ["c", "compliance</w>"], ["finn", "ancial</w>"],
[...]
